{
  "version": "1.0",
  "truncation": null,
  "padding": null,
  "added_tokens": [
    {
      "id": 0,
      "content": "<PAD>",
      "single_word": false,
      "lstrip": false,
      "rstrip": false,
      "normalized": false,
      "special": true
    },
    {
      "id": 1,
      "content": "<BOS>",
      "single_word": false,
      "lstrip": false,
      "rstrip": false,
      "normalized": false,
      "special": true
    },
    {
      "id": 2,
      "content": "<EOS>",
      "single_word": false,
      "lstrip": false,
      "rstrip": false,
      "normalized": false,
      "special": true
    },
    {
      "id": 3,
      "content": "<UNK>",
      "single_word": false,
      "lstrip": false,
      "rstrip": false,
      "normalized": false,
      "special": true
    }
  ],
  "normalizer": null,
  "pre_tokenizer": {
    "type": "ByteLevel",
    "add_prefix_space": false,
    "trim_offsets": true,
    "use_regex": true
  },
  "post_processor": null,
  "decoder": {
    "type": "ByteLevel",
    "add_prefix_space": true,
    "trim_offsets": true,
    "use_regex": true
  },
  "model": {
    "type": "BPE",
    "dropout": null,
    "unk_token": "<UNK>",
    "continuing_subword_prefix": null,
    "end_of_word_suffix": null,
    "fuse_unk": false,
    "byte_fallback": false,
    "ignore_merges": false,
    "vocab": {
      "<PAD>": 0,
      "<BOS>": 1,
      "<EOS>": 2,
      "<UNK>": 3,
      "!": 4,
      "\"": 5,
      "#": 6,
      "$": 7,
      "&": 8,
      "'": 9,
      "(": 10,
      ")": 11,
      "*": 12,
      "+": 13,
      ",": 14,
      "-": 15,
      ".": 16,
      "/": 17,
      "0": 18,
      "1": 19,
      "2": 20,
      "3": 21,
      "4": 22,
      "5": 23,
      "6": 24,
      "7": 25,
      "8": 26,
      "9": 27,
      ":": 28,
      ";": 29,
      "=": 30,
      ">": 31,
      "?": 32,
      "A": 33,
      "B": 34,
      "C": 35,
      "D": 36,
      "E": 37,
      "F": 38,
      "G": 39,
      "H": 40,
      "I": 41,
      "J": 42,
      "K": 43,
      "L": 44,
      "M": 45,
      "N": 46,
      "O": 47,
      "P": 48,
      "Q": 49,
      "R": 50,
      "S": 51,
      "T": 52,
      "U": 53,
      "V": 54,
      "W": 55,
      "X": 56,
      "Y": 57,
      "Z": 58,
      "[": 59,
      "]": 60,
      "_": 61,
      "`": 62,
      "a": 63,
      "b": 64,
      "c": 65,
      "d": 66,
      "e": 67,
      "f": 68,
      "g": 69,
      "h": 70,
      "i": 71,
      "j": 72,
      "k": 73,
      "l": 74,
      "m": 75,
      "n": 76,
      "o": 77,
      "p": 78,
      "q": 79,
      "r": 80,
      "s": 81,
      "t": 82,
      "u": 83,
      "v": 84,
      "w": 85,
      "x": 86,
      "y": 87,
      "z": 88,
      "~": 89,
      "¡": 90,
      "¢": 91,
      "£": 92,
      "¤": 93,
      "¦": 94,
      "§": 95,
      "¨": 96,
      "©": 97,
      "ª": 98,
      "«": 99,
      "®": 100,
      "¯": 101,
      "°": 102,
      "´": 103,
      "¶": 104,
      "¹": 105,
      "º": 106,
      "»": 107,
      "¼": 108,
      "Â": 109,
      "Ã": 110,
      "Å": 111,
      "Ð": 112,
      "â": 113,
      "Ċ": 114,
      "Ġ": 115,
      "Ģ": 116,
      "Ĥ": 117,
      "Ĩ": 118,
      "ĩ": 119,
      "Ī": 120,
      "ī": 121,
      "Ĭ": 122,
      "İ": 123,
      "Ĳ": 124,
      "Ĵ": 125,
      "ĵ": 126,
      "Ķ": 127,
      "ĺ": 128,
      "Ļ": 129,
      "ľ": 130,
      "Ŀ": 131,
      "ł": 132,
      "Ġt": 133,
      "Ġa": 134,
      "he": 135,
      "Ġd": 136,
      "re": 137,
      "Ġs": 138,
      "ou": 139,
      "Ġl": 140,
      "en": 141,
      "in": 142,
      "on": 143,
      "Ġp": 144,
      "it": 145,
      "Ġc": 146,
      "es": 147,
      "Ġm": 148,
      "er": 149,
      "is": 150,
      "Ã©": 151,
      "an": 152,
      "Ġthe": 153,
      "Ġw": 154,
      "Ġf": 155,
      "qu": 156,
      "Ġb": 157,
      "Ġde": 158,
      "Ġh": 159,
      "ar": 160,
      "le": 161,
      "Ġo": 162,
      "Ġe": 163,
      "Ġn": 164,
      "at": 165,
      "il": 166,
      "ent": 167,
      "as": 168,
      "or": 169,
      "Ġqu": 170,
      "ed": 171,
      "nd": 172,
      "ait": 173,
      "om": 174,
      "Ġv": 175,
      "Ġto": 176,
      "ing": 177,
      "Ġof": 178,
      "un": 179,
      "âĢ": 180,
      "ur": 181,
      "el": 182,
      "Ġla": 183,
      "Ġth": 184,
      "Ġin": 185,
      "Ġle": 186,
      "us": 187,
      "Ġand": 188,
      "ai": 189,
      "Ġre": 190,
      "Ġg": 191,
      "Ġhe": 192,
      "our": 193,
      "âĢĻ": 194,
      "Ġj": 195,
      "te": 196,
      "Ġet": 197,
      "al": 198,
      "ce": 199,
      "ut": 200,
      "Ġr": 201,
      "ve": 202,
      "ous": 203,
      "ad": 204,
      "ir": 205,
      "et": 206,
      "Ãł": 207,
      "ant": 208,
      "Ġun": 209,
      "me": 210,
      "ais": 211,
      "ot": 212,
      "ch": 213,
      "ion": 214,
      "ri": 215,
      "Ġse": 216,
      "ro": 217,
      "ĠÃł": 218,
      "Ġen": 219,
      "ĠI": 220,
      "im": 221,
      "Ġy": 222,
      "se": 223,
      "Ã©t": 224,
      "Ġbe": 225,
      "Ġque": 226,
      "Ġwh": 227,
      "Ġwas": 228,
      "out": 229,
      "ie": 230,
      "Ġles": 231,
      "Ġon": 232,
      "res": 233,
      "and": 234,
      "ain": 235,
      "ag": 236,
      "ig": 237,
      "Ġthat": 238,
      "Ġne": 239,
      "Ġme": 240,
      "Ã¨": 241,
      "id": 242,
      "ment": 243,
      "ow": 244,
      "ver": 245,
      "ol": 246,
      "ans": 247,
      "Ġfor": 248,
      "est": 249,
      "st": 250,
      "Ġcom": 251,
      "Ġpar": 252,
      "ux": 253,
      "Ġit": 254,
      "Ġje": 255,
      "ith": 256,
      "ĠM": 257,
      "Ġcon": 258,
      "ac": 259,
      "Ġpas": 260,
      "ay": 261,
      "ly": 262,
      "Ġil": 263,
      "Ġpl": 264,
      "ab": 265,
      "Ġhis": 266,
      "Ġal": 267,
      "Ġas": 268,
      "Ġwith": 269,
      "ld": 270,
      "am": 271,
      "ter": 272,
      "Ġdes": 273,
      "ap": 274,
      "ic": 275,
      "Ġhad": 276,
      "Ġch": 277,
      "ien": 278,
      "Ġat": 279,
      "ul": 280,
      "ill": 281,
      "Ġnot": 282,
      "Ġqui": 283,
      "av": 284,
      "her": 285,
      "ure": 286,
      "Ãª": 287,
      "--": 288,
      "os": 289,
      "Ġyou": 290,
      "Ġan": 291,
      "ĠÃ©t": 292,
      "ui": 293,
      "end": 294,
      "ard": 295,
      "au": 296,
      "Ġmo": 297,
      "Ġtr": 298,
      "Ġune": 299,
      "ne": 300,
      "Ġdu": 301,
      "ould": 302,
      "Ġwe": 303,
      "ht": 304,
      "Ġst": 305,
      "Ġher": 306,
      "if": 307,
      "ave": 308,
      "Ġav": 309,
      "Ġdans": 310,
      "up": 311,
      "ĠC": 312,
      "aient": 313,
      "Ġpour": 314,
      "Ġpr": 315,
      "The": 316,
      "Ġmy": 317,
      "Ġhim": 318,
      "Ġce": 319,
      "ort": 320,
      "Ġwhi": 321,
      "Ġmon": 322,
      "Ã©e": 323,
      "Ġso": 324,
      "Ġsur": 325,
      "Ġsa": 326,
      "Ġson": 327,
      "em": 328,
      "tre": 329,
      "ers": 330,
      "ess": 331,
      "ire": 332,
      "Ġis": 333,
      "ct": 334,
      "Ġfr": 335,
      "Ã©s": 336,
      "Ġsh": 337,
      "Ġvous": 338,
      "Ġwhich": 339,
      "ke": 340,
      "Ġex": 341,
      "elle": 342,
      "Ġau": 343,
      "Ġall": 344,
      "que": 345,
      "che": 346,
      "ation": 347,
      "lle": 348,
      "pe": 349,
      "ĠP": 350,
      "Ġlui": 351,
      "nt": 352,
      "Ġsu": 353,
      "ell": 354,
      "ge": 355,
      ".\"": 356,
      "ff": 357,
      "Ã©c": 358,
      "Ġplus": 359,
      "oo": 360,
      "Ġshe": 361,
      "Ã¨re": 362,
      "Ã©p": 363,
      "ille": 364,
      "ouv": 365,
      "red": 366,
      "Ġhave": 367,
      "Ġpro": 368,
      "de": 369,
      "ue": 370,
      "Ġgr": 371,
      "ĠS": 372,
      "Ġby": 373,
      "ĠL": 374,
      "Ġdon": 375,
      "age": 376,
      "Ġdis": 377,
      "ight": 378,
      "all": 379,
      "Ġthis": 380,
      "si": 381,
      "Ġvo": 382,
      "ore": 383,
      "oug": 384,
      "Ġpe": 385,
      "ite": 386,
      "ons": 387,
      "Ġave": 388,
      "ong": 389,
      "aid": 390,
      "Ġar": 391,
      "Ġap": 392,
      "ine": 393,
      "ĠA": 394,
      "ĠJ": 395,
      "ble": 396,
      "ette": 397,
      "able": 398,
      "ier": 399,
      "Ġtout": 400,
      "Ġma": 401,
      "Ġbut": 402,
      "ĠÃ©tait": 403,
      "iv": 404,
      "Ġno": 405,
      "Ġsi": 406,
      "une": 407,
      "Ġnous": 408,
      "Ġman": 409,
      "ĠB": 410,
      "Ġup": 411,
      "Ġavait": 412,
      "Ġmais": 413,
      "ond": 414,
      "pl": 415,
      "Ġfrom": 416,
      "th": 417,
      "Ġwho": 418,
      "Ġwere": 419,
      "Ġk": 420,
      "Ġavec": 421,
      "Ġsaid": 422,
      "Ġdo": 423,
      "Ġdit": 424,
      "Ġbr": 425,
      "iss": 426,
      "Ġelle": 427,
      "Ġwhe": 428,
      "Ġab": 429,
      "ust": 430,
      "'s": 431,
      "Ġ\"": 432,
      "Ġpo": 433,
      "ast": 434,
      "Ġor": 435,
      "ord": 436,
      "Ġent": 437,
      "ĠF": 438,
      "Il": 439,
      "ĠH": 440,
      "ame": 441,
      "sel": 442,
      "Ġam": 443,
      "Ġthey": 444,
      "aut": 445,
      "int": 446,
      "aire": 447,
      ",\"": 448,
      "ance": 449,
      "ace": 450,
      "art": 451,
      "ind": 452,
      "um": 453,
      "Ġcette": 454,
      "ert": 455,
      "ence": 456,
      "Ġwould": 457,
      "Ġbien": 458,
      "Â«": 459,
      "Ã®": 460,
      "bl": 461,
      "uis": 462,
      "Ã¢": 463,
      "urs": 464,
      "Ã§": 465,
      "ist": 466,
      "Ã¨s": 467,
      "ĠG": 468,
      "ide": 469,
      "cc": 470,
      "Ġpre": 471,
      "Ġcomme": 472,
      "Ġim": 473,
      "Ġone": 474,
      "ions": 475,
      "use": 476,
      "ĠdÃ©": 477,
      "Ġses": 478,
      "pr": 479,
      "ĠR": 480,
      "Ġsom": 481,
      "Â»": 482,
      "ps": 483,
      "ois": 484,
      "ven": 485,
      "ound": 486,
      "Ġest": 487,
      "Ġthem": 488,
      "ors": 489,
      "Ġint": 490,
      "oir": 491,
      "Ġli": 492,
      "mes": 493,
      "self": 494,
      "ate": 495,
      "app": 496,
      "Ġcou": 497,
      "Ġmar": 498,
      "ck": 499,
      "ĠE": 500,
      "onn": 501,
      "Ã©r": 502,
      "Ġpass": 503,
      "Ġfe": 504,
      "ĠD": 505,
      "ĠN": 506,
      "Ġser": 507,
      "Ġout": 508,
      "itt": 509,
      "..": 510,
      "Ġ!": 511,
      "Ġro": 512,
      "agn": 513,
      "Ġpart": 514,
      "Ã©tait": 515,
      "op": 516,
      "Ġ;": 517,
      "les": 518,
      "Ġag": 519,
      "Ġlo": 520,
      "ive": 521,
      "ood": 522,
      "ens": 523,
      "ang": 524,
      "ours": 525,
      "ont": 526,
      "Ġlong": 527,
      "ile": 528,
      "ĠÃ©": 529,
      "Ã´": 530,
      "ress": 531,
      "?\"": 532,
      "ak": 533,
      "are": 534,
      "Ġper": 535,
      "Ġcould": 536,
      "ign": 537,
      "Ġou": 538,
      "âĢĵ": 539,
      "He": 540,
      "Ġthere": 541,
      "ied": 542,
      "ade": 543,
      "ice": 544,
      "Ġcomp": 545,
      "Ġcar": 546,
      "Ġbeen": 547,
      "Ġtheir": 548,
      "ass": 549,
      "Ġcl": 550,
      "anc": 551,
      "ery": 552,
      "Ġtou": 553,
      "Ġquel": 554,
      "Ġcont": 555,
      "Ġdev": 556,
      "Ġche": 557,
      "Ġwhen": 558,
      "air": 559,
      "Ġret": 560,
      "Ġwill": 561,
      "Ġgo": 562,
      "Ġbl": 563,
      "Ġtw": 564,
      "ose": 565,
      "!\"": 566,
      "Ã»": 567,
      "Ġare": 568,
      "Ġcr": 569,
      "ĠT": 570,
      "Ãªtre": 571,
      "Ġad": 572,
      "ins": 573,
      "Ġrem": 574,
      "It": 575,
      "Je": 576,
      "Ġres": 577,
      "ĠrÃ©p": 578,
      "reat": 579,
      "pt": 580,
      "itÃ©": 581,
      "Ġgrand": 582,
      "Ġif": 583,
      "Ġdeux": 584,
      "Ġco": 585,
      "ked": 586,
      "ought": 587,
      "ough": 588,
      "und": 589,
      "Ġus": 590,
      "ise": 591,
      "hing": 592,
      "Ġreg": 593,
      "Ġyour": 594,
      "Ġmore": 595,
      "Ġces": 596,
      "Ġaut": 597,
      "uit": 598,
      "Ġwhat": 599,
      "Ãªme": 600,
      "oi": 601,
      "ays": 602,
      "Ã©es": 603,
      "Ġfait": 604,
      "ci": 605,
      "Ġmoi": 606,
      "ther": 607,
      "Ġsans": 608,
      "ime": 609,
      "Ġsp": 610,
      "ĠV": 611,
      "Ġhom": 612,
      "Le": 613,
      "oment": 614,
      "Ġdou": 615,
      "oy": 616,
      "ra": 617,
      "hed": 618,
      "Ġmoment": 619,
      "Ġdem": 620,
      "ack": 621,
      "pos": 622,
      "Ġrec": 623,
      "Ã´t": 624,
      "Ġmain": 625,
      "Ġcour": 626,
      "urn": 627,
      "ix": 628,
      "Ġvery": 629,
      "Ġever": 630,
      "Ġcan": 631,
      "ale": 632,
      "ils": 633,
      "one": 634,
      "ieur": 635,
      "od": 636,
      "Ġthen": 637,
      "ies": 638,
      "Ġinto": 639,
      "ud": 640,
      "Ġter": 641,
      "Ġaf": 642,
      "Ġapp": 643,
      "Ġsome": 644,
      "ach": 645,
      "rt": 646,
      "Ġkn": 647,
      "ner": 648,
      "oul": 649,
      "ity": 650,
      "bre": 651,
      "Ã¹": 652,
      "Ġfl": 653,
      "ures": 654,
      "Ġany": 655,
      "ante": 656,
      "Ġatt": 657,
      "Ġsee": 658,
      "ques": 659,
      "ng": 660,
      "own": 661,
      "Ġfut": 662,
      "endant": 663,
      "onne": 664,
      "Ġtro": 665,
      "Th": 666,
      "led": 667,
      "Ġpoint": 668,
      "ft": 669,
      "Ġlitt": 670,
      "ep": 671,
      "aux": 672,
      "Ġenc": 673,
      "Ġlike": 674,
      "Ġ?": 675,
      "Ġfaire": 676,
      "Ġoff": 677,
      "eux": 678,
      "But": 679,
      "Ġagain": 680,
      "ches": 681,
      "fore": 682,
      "Wh": 683,
      "ry": 684,
      "Ġem": 685,
      "Ġthan": 686,
      "Ġlet": 687,
      "riv": 688,
      "Ġlittle": 689,
      "Ġcro": 690,
      "Ġother": 691,
      "je": 692,
      "Qu": 693,
      "vers": 694,
      "Ġcons": 695,
      "Ãªt": 696,
      "wn": 697,
      "Ġtwo": 698,
      "Ġshould": 699,
      "Ġacc": 700,
      "Ġdid": 701,
      "Ġhand": 702,
      "Ġob": 703,
      "ĠrÃ©": 704,
      "Ġpos": 705,
      "Ġtoo": 706,
      "Ġtime": 707,
      "ĠoÃ¹": 708,
      "Ġhas": 709,
      "Ġrep": 710,
      "aine": 711,
      "king": 712,
      "Ġcomm": 713,
      "Ġcri": 714,
      "iÃ¨re": 715,
      "Ġop": 716,
      "ĠÂ»": 717,
      "Ġnow": 718,
      "Ġupon": 719,
      "old": 720,
      "Ġfort": 721,
      "enc": 722,
      "Ġaux": 723,
      "Art": 724,
      "ieu": 725,
      "Ġtem": 726,
      "Ġloo": 727,
      "Ġover": 728,
      "ely": 729,
      "agnan": 730,
      "Ã»t": 731,
      "Artagnan": 732,
      "orte": 733,
      "Ġabout": 734,
      "Ġour": 735,
      "ish": 736,
      "Ġregard": 737,
      "act": 738,
      "ree": 739,
      "ated": 740,
      "And": 741,
      "Ġleur": 742,
      "Ġdire": 743,
      "Ġsc": 744,
      "Ġvie": 745,
      "Ġcap": 746,
      "og": 747,
      "Ġonly": 748,
      "iz": 749,
      "Ġpeu": 750,
      "Ġ:": 751,
      "Ġmade": 752,
      "cl": 753,
      "Ġpet": 754,
      "Mais": 755,
      "rie": 756,
      "ulien": 757,
      "Ã©n": 758,
      "Ġjour": 759,
      "iff": 760,
      "Ġgl": 761,
      "otre": 762,
      "Ġpouv": 763,
      "ret": 764,
      "ĠÃ©c": 765,
      "Ġsou": 766,
      "Ġven": 767,
      "Ġencore": 768,
      "ĠrÃ©pond": 769,
      "Ġgreat": 770,
      "Ġafter": 771,
      "Ġrest": 772,
      "we": 773,
      "Ġcel": 774,
      "ĠÃ©tÃ©": 775,
      "Ġsec": 776,
      "Ġchar": 777,
      "oll": 778,
      "Ġthought": 779,
      "Ġpers": 780,
      "Ġsent": 781,
      "Ġes": 782,
      "Ġsup": 783,
      "other": 784,
      "Ġbefore": 785,
      "ug": 786,
      "ussi": 787,
      "ather": 788,
      "ĠO": 789,
      "ĠmÃªme": 790,
      "Ġeven": 791,
      "Ġknow": 792,
      "Ġmust": 793,
      "avait": 794,
      "ĠJe": 795,
      "ett": 796,
      "Ġevery": 797,
      "Ġfem": 798,
      "ars": 799,
      "Ġhimself": 800,
      "rait": 801,
      "Ġwor": 802,
      "ants": 803,
      "ult": 804,
      "Ġ'": 805,
      "Ġey": 806,
      "be": 807,
      "ique": 808,
      "Ġdont": 809,
      "La": 810,
      "Ġund": 811,
      "Ġdemand": 812,
      "Ġday": 813,
      "ath": 814,
      "ady": 815,
      "rÃ©": 816,
      "ran": 817,
      "âĢĶ": 818,
      "ful": 819,
      "ary": 820,
      "Ġils": 821,
      "ule": 822,
      "Ġcor": 823,
      "Ġjus": 824,
      "Ġmal": 825,
      "erv": 826,
      "ten": 827,
      "Ġmes": 828,
      "Ãªte": 829,
      "Ġtous": 830,
      "uch": 831,
      "ren": 832,
      "ĠMr": 833,
      "pect": 834,
      "Ġgood": 835,
      "Ġhow": 836,
      "Ġfir": 837,
      "Ġimp": 838,
      "ince": 839,
      "ll": 840,
      "asse": 841,
      "ient": 842,
      "rÃ¨s": 843,
      "Ġpres": 844,
      "ber": 845,
      "ings": 846,
      "Ġta": 847,
      "ern": 848,
      "Ġsem": 849,
      "ip": 850,
      "You": 851,
      "Ġcert": 852,
      "mo": 853,
      "Ġdown": 854,
      "Ġthese": 855,
      "att": 856,
      "Ġquand": 857,
      "Ġinst": 858,
      "ife": 859,
      "ieux": 860,
      "Ġits": 861,
      "ouse": 862,
      "Ġenf": 863,
      "ations": 864,
      "Ġdist": 865,
      "cher": 866,
      "sible": 867,
      "Et": 868,
      "Ġsay": 869,
      "Ġvis": 870,
      "Ġhomme": 871,
      "min": 872,
      "Ġbo": 873,
      "Ġaw": 874,
      "ious": 875,
      "Ġdonc": 876,
      "Ġpuis": 877,
      "itu": 878,
      "Ġfri": 879,
      "ally": 880,
      "Ġwent": 881,
      "Ġple": 882,
      "ction": 883,
      "Ġte": 884,
      "inu": 885,
      "ness": 886,
      "Ġcome": 887,
      "Ġaff": 888,
      "iers": 889,
      "'t": 890,
      "On": 891,
      "Ġca": 892,
      "ĠCh": 893,
      "Ġrien": 894,
      "Ġjam": 895,
      "Ġaussi": 896,
      "ward": 897,
      "Ġsous": 898,
      "Ġmat": 899,
      "vous": 900,
      "Ġquelque": 901,
      "Ġfirst": 902,
      "Ġwithout": 903,
      "âĪ": 904,
      "Ġeff": 905,
      "Ġplace": 906,
      "Ġsuch": 907,
      "Ġunder": 908,
      "âĪĴ": 909,
      "ened": 910,
      "arr": 911,
      "She": 912,
      "aÃ®": 913,
      "ex": 914,
      "Ġcame": 915,
      "Ġtrouv": 916,
      "Ġtemps": 917,
      "Ġtrou": 918,
      "Ġvoy": 919,
      "Ġarriv": 920,
      "Ġtoute": 921,
      "Ã©g": 922,
      "Ġbec": 923,
      "auv": 924,
      "ĠJulien": 925,
      "Elle": 926,
      "ole": 927,
      "Ġback": 928,
      "orm": 929,
      "Ã©l": 930,
      "per": 931,
      "Ġmuch": 932,
      "ĠW": 933,
      "Ã©d": 934,
      "Ġpens": 935,
      "Ġpris": 936,
      "ents": 937,
      "ndre": 938,
      "ared": 939,
      "Ġseem": 940,
      "Ġparl": 941,
      "Ġfin": 942,
      "Ġfais": 943,
      "avais": 944,
      "ks": 945,
      "Ġjust": 946,
      "ĠdÃ©s": 947,
      "rent": 948,
      "Ġbet": 949,
      "Ã¨rent": 950,
      "Ġprof": 951,
      "Ġnever": 952,
      "Ġass": 953,
      "abri": 954,
      "Ġeyes": 955,
      "arg": 956,
      "Ġwhere": 957,
      "ments": 958,
      "ock": 959,
      "Ġdep": 960,
      "Ġlast": 961,
      "ition": 962,
      "Ġwell": 963,
      "Ġmons": 964,
      "Ġbeg": 965,
      "Ġsort": 966,
      "Ġspe": 967,
      "Ġcol": 968,
      "Ġwat": 969,
      "Ġfemme": 970,
      "Ġmonsieur": 971,
      "ts": 972,
      "Ġsil": 973,
      "Ġcal": 974,
      "Ġcela": 975,
      "insi": 976,
      "Ġfois": 977,
      "Ġyeux": 978,
      "Ġmight": 979,
      "Ġfit": 980,
      "Ġnothing": 981,
      "Ġvotre": 982,
      "ning": 983,
      "Ġtrois": 984,
      "ĠÃ©p": 985,
      "du": 986,
      "Ġten": 987,
      "âĢ¦": 988,
      "Ġthin": 989,
      "urent": 990,
      "uss": 991,
      "ple": 992,
      "ĠdÃ©c": 993,
      "prit": 994,
      "Ġfer": 995,
      "There": 996,
      "What": 997,
      "En": 998,
      "illes": 999,
      "ĠÃ©taient": 1000,
      "Ġpu": 1001,
      "Ġstr": 1002,
      "Ġentre": 1003,
      "Ġhead": 1004,
      "Ġyoung": 1005,
      "Ġdiff": 1006,
      "omp": 1007,
      "Ġvoir": 1008,
      "Ġprem": 1009,
      "mer": 1010,
      "aiss": 1011,
      "Ġvers": 1012,
      "Ġgu": 1013,
      "Ġcontinu": 1014,
      "ĠÃªtre": 1015,
      "Ġord": 1016,
      "ĠLa": 1017,
      "Ġpeut": 1018,
      "Ġjamais": 1019,
      "Ġfound": 1020,
      "Ġcham": 1021,
      "oud": 1022,
      "Ġvoul": 1023,
      "Ġind": 1024,
      "Ġstill": 1025,
      "Ġmen": 1026,
      "Ġend": 1027,
      "ez": 1028,
      "Ġput": 1029,
      "Ġport": 1030,
      "Ġinc": 1031,
      "Ġwom": 1032,
      "tain": 1033,
      "ĠÂ«": 1034,
      "jours": 1035,
      "Ġsuis": 1036,
      "Ġren": 1037,
      "iÃ¨": 1038,
      "Ġmake": 1039,
      "Ġtu": 1040,
      "ĠlÃł": 1041,
      "Ġmin": 1042,
      "adame": 1043,
      "aint": 1044,
      "Ġavoir": 1045,
      "Ġserv": 1046,
      "ase": 1047,
      "ages": 1048,
      "rit": 1049,
      "Ġshall": 1050,
      "Ġleft": 1051,
      "Ġtoujours": 1052,
      "Ġbeing": 1053,
      "At": 1054,
      "ici": 1055,
      "Ġaway": 1056,
      "omb": 1057,
      "ature": 1058,
      "Ġliv": 1059,
      "land": 1060,
      "Ġbon": 1061,
      ",'": 1062,
      "Ġair": 1063,
      "ick": 1064,
      "Ġpetit": 1065,
      "Ġjusqu": 1066,
      "Ġtour": 1067,
      "Ġpri": 1068,
      "ĠPar": 1069,
      "med": 1070,
      "Ġmot": 1071,
      "Ġsaw": 1072,
      "Ġsl": 1073,
      "Ġmer": 1074,
      "ild": 1075,
      "ĠrÃ©pondit": 1076,
      "tem": 1077,
      "This": 1078,
      "Ġway": 1079,
      "Ġrepl": 1080,
      "Ġconf": 1081,
      "elles": 1082,
      "Ġquelques": 1083,
      "Ġword": 1084,
      "ues": 1085,
      "Ġbel": 1086,
      "Ġref": 1087,
      "ĠaprÃ¨s": 1088,
      "Ġface": 1089,
      "sez": 1090,
      "cle": 1091,
      "aving": 1092,
      "bert": 1093,
      "Ġni": 1094,
      "Ġinf": 1095,
      "Ġhor": 1096,
      "ome": 1097,
      "Ġjeune": 1098,
      "...": 1099,
      "Ġainsi": 1100,
      "owed": 1101,
      "ouve": 1102,
      "Ġmor": 1103,
      "ves": 1104,
      "ved": 1105,
      "Ġthr": 1106,
      "Ġmoins": 1107,
      "Ġcet": 1108,
      "row": 1109,
      "Ġcertain": 1110,
      "Ãī": 1111,
      "ros": 1112,
      "rai": 1113,
      "Ġturn": 1114,
      "Ġheures": 1115,
      "Ġans": 1116,
      "Ġocc": 1117,
      "Ġlaiss": 1118,
      "They": 1119,
      "Ġexp": 1120,
      "In": 1121,
      "ily": 1122,
      "uiv": 1123,
      "Ġtoutes": 1124,
      "Ġfriend": 1125,
      "Ġold": 1126,
      "Ġcher": 1127,
      "Ġcoup": 1128,
      "eur": 1129,
      "port": 1130,
      "elt": 1131,
      "Ġfour": 1132,
      "endre": 1133,
      "Ġlar": 1134,
      "Ġmis": 1135,
      "Ġfall": 1136,
      "Les": 1137,
      "Ġthree": 1138,
      "Ġins": 1139,
      "Ã¢t": 1140,
      "ever": 1141,
      "Ġnotre": 1142,
      "Ġac": 1143,
      "Ġdonn": 1144,
      "thing": 1145,
      "Ce": 1146,
      "orth": 1147,
      "Ġreplied": 1148,
      "Ġtook": 1149,
      "Ġsm": 1150,
      "Ġporte": 1151,
      "ried": 1152,
      "Ġprom": 1153,
      "inc": 1154,
      "Ġinter": 1155,
      "Ġgoing": 1156,
      "ght": 1157,
      "Ġautre": 1158,
      "Ġke": 1159,
      "Ġrais": 1160,
      "Un": 1161,
      "oire": 1162,
      "ĠrÃ©s": 1163,
      "oute": 1164,
      "Ġmur": 1165,
      "Ġleurs": 1166,
      "pris": 1167,
      "Ġthose": 1168,
      "man": 1169,
      "nes": 1170,
      "Ġgent": 1171,
      "ia": 1172,
      "men": 1173,
      "ze": 1174,
      "Ġmil": 1175,
      "Ġnom": 1176,
      "Ġwind": 1177,
      "Ġhal": 1178,
      "Ġseule": 1179,
      "Ġsont": 1180,
      "Ġmay": 1181,
      "Ġbeau": 1182,
      "Ġtake": 1183,
      "igne": 1184,
      "Ġown": 1185,
      "Ġwhile": 1186,
      "Ġfam": 1187,
      "ove": 1188,
      "igh": 1189,
      "Then": 1190,
      "encro": 1191,
      "Ġsembl": 1192,
      "Ġsal": 1193,
      "Ġlife": 1194,
      "Ġcur": 1195,
      "Ġel": 1196,
      "Ġarm": 1197,
      "Ġappe": 1198,
      "Ġnight": 1199,
      "Ġchose": 1200,
      "ĠdÃ©p": 1201,
      "Ġconn": 1202,
      "Ġalors": 1203,
      "vent": 1204,
      "oup": 1205,
      "omme": 1206,
      "Ġseemed": 1207,
      "Ġsat": 1208,
      "less": 1209,
      "Ġsame": 1210,
      "ger": 1211,
      "ardin": 1212,
      "aud": 1213,
      "Ġthrough": 1214,
      ".'": 1215,
      "ĠtÃªte": 1216,
      "esse": 1217,
      "Ġrel": 1218,
      "Ġheart": 1219,
      "ets": 1220,
      "Ġsoon": 1221,
      "autre": 1222,
      "Ġroom": 1223,
      "Ġpouvait": 1224,
      "Ġcent": 1225,
      "ĠtrÃ¨s": 1226,
      "Ġdevant": 1227,
      "iqu": 1228,
      "hen": 1229,
      "Ġkne": 1230,
      "ted": 1231,
      "Ġ1": 1232,
      "atre": 1233,
      "Ġste": 1234,
      "Ġdel": 1235,
      "ienne": 1236,
      "oc": 1237,
      "Ġcontre": 1238,
      "Ġwoman": 1239,
      "ect": 1240,
      "Ġtak": 1241,
      "Ġpied": 1242,
      "Ġbes": 1243,
      "ente": 1244,
      "Ġheure": 1245,
      "aque": 1246,
      "ĠprÃ©s": 1247,
      "Ġthink": 1248,
      "tt": 1249,
      "Ġmet": 1250,
      "Ã©cri": 1251,
      "Ġsix": 1252,
      "urait": 1253,
      "Ġhere": 1254,
      "Ġmont": 1255,
      "Ġexc": 1256,
      "ĠFabri": 1257,
      "No": 1258,
      "Ġtre": 1259,
      "Ġhapp": 1260,
      "Ġjours": 1261,
      "ail": 1262,
      "yr": 1263,
      "orter": 1264,
      "Ġgard": 1265,
      "ained": 1266,
      "Ġcond": 1267,
      "Ġavant": 1268,
      "Ġgrande": 1269,
      "els": 1270,
      "Ġsub": 1271,
      "Ġreturn": 1272,
      "Ġph": 1273,
      "Ġve": 1274,
      "Ġmost": 1275,
      "iel": 1276,
      "Ġlors": 1277,
      "oth": 1278,
      "tenant": 1279,
      "hap": 1280,
      "heure": 1281,
      "thos": 1282,
      "Ġsour": 1283,
      "Ġsuiv": 1284,
      "ished": 1285,
      "Ġtrop": 1286,
      "ped": 1287,
      "Ġhouse": 1288,
      "Ġonce": 1289,
      "Ġ.": 1290,
      "Ġsav": 1291,
      "Ġpendant": 1292,
      "Ġmyself": 1293,
      "Ġext": 1294,
      "Ġtell": 1295,
      "Ġfo": 1296,
      "ĠmaÃ®": 1297,
      ".Â»": 1298,
      "We": 1299,
      "Ġsim": 1300,
      "Ġenv": 1301,
      "Ġtra": 1302,
      "Ġdoor": 1303,
      "Ġobs": 1304,
      "hes": 1305,
      "ither": 1306,
      "Ã©tais": 1307,
      "Ġcried": 1308,
      "ian": 1309,
      "Ġheard": 1310,
      "Ġavaient": 1311,
      "ces": 1312,
      "eau": 1313,
      "Ã©rie": 1314,
      "Ġfoll": 1315,
      "Ġgen": 1316,
      "As": 1317,
      "Ġlight": 1318,
      "Ã§a": 1319,
      "Ġchez": 1320,
      "Ġ_": 1321,
      "Ġvol": 1322,
      "ĠIl": 1323,
      "onse": 1324,
      "aster": 1325,
      "Ġdro": 1326,
      "ched": 1327,
      "Ġlad": 1328,
      "Ġdesc": 1329,
      "Ġsais": 1330,
      "Ġfig": 1331,
      "Ġvi": 1332,
      "Ġtable": 1333,
      "ats": 1334,
      "Ġye": 1335,
      "Ġsoir": 1336,
      "Ġinstant": 1337,
      "ered": 1338,
      "Ġdr": 1339,
      "Ġrev": 1340,
      "ables": 1341,
      "Ã§on": 1342,
      "Ġterre": 1343,
      "br": 1344,
      "ane": 1345,
      "Ġfille": 1346,
      "Ġsuff": 1347,
      "aille": 1348,
      "ways": 1349,
      "Ġquest": 1350,
      "Ġcapit": 1351,
      "ict": 1352,
      "Ġagainst": 1353,
      "Ġhands": 1354,
      "den": 1355,
      "Ġchambre": 1356,
      "Ġthough": 1357,
      "itude": 1358,
      "Ġdisc": 1359,
      "Ġlove": 1360,
      "anger": 1361,
      "Ġgive": 1362,
      "iment": 1363,
      "uer": 1364,
      "Ġsol": 1365,
      "Ġbre": 1366,
      "Ġnuit": 1367,
      "Ġtold": 1368,
      "ains": 1369,
      "Oh": 1370,
      "ph": 1371,
      "Ġtal": 1372,
      "ention": 1373,
      "ory": 1374,
      "Ġgave": 1375,
      "ĠMa": 1376,
      "cy": 1377,
      "iÃ©": 1378,
      "ible": 1379,
      "ope": 1380,
      "Ġfaut": 1381,
      "Ġbou": 1382,
      "imes": 1383,
      "Ġconv": 1384,
      "Ġhab": 1385,
      "Ġnon": 1386,
      "tement": 1387,
      "Ġcount": 1388,
      "Ġhalf": 1389,
      "Åĵ": 1390,
      "Ġfar": 1391,
      "ull": 1392,
      "Yes": 1393,
      "Ġfell": 1394,
      "Ãªtes": 1395,
      "ĠMme": 1396,
      "Ġherself": 1397,
      "ĠPencro": 1398,
      "Ġlarge": 1399,
      "Ġform": 1400,
      "wards": 1401,
      "Ġwant": 1402,
      "onsieur": 1403,
      "Ġdepuis": 1404,
      "Ġdi": 1405,
      "Ġjet": 1406,
      "Ġeng": 1407,
      "acc": 1408,
      "Ġplac": 1409,
      "Ġsomet": 1410,
      "Ġchev": 1411,
      "Ġlooked": 1412,
      "ines": 1413,
      "ĠcÃ´t": 1414,
      "Ġfind": 1415,
      "Ġhaving": 1416,
      "range": 1417,
      "ĠdÃ©t": 1418,
      "cept": 1419,
      "ides": 1420,
      "ott": 1421,
      "iez": 1422,
      "ma": 1423,
      "Ã©ch": 1424,
      "Ġhum": 1425,
      "ark": 1426,
      "io": 1427,
      "eth": 1428,
      "Ġasked": 1429,
      "Ġspeak": 1430,
      "oin": 1431,
      "rible": 1432,
      "its": 1433,
      "Ġfelt": 1434,
      "ĠAr": 1435,
      "uck": 1436,
      "Ġmort": 1437,
      "Ġrapp": 1438,
      "Ġassez": 1439,
      "ĠRo": 1440,
      "Ġir": 1441,
      "Ġsing": 1442,
      "ense": 1443,
      "Ġabs": 1444,
      "Ġautres": 1445,
      "ause": 1446,
      "get": 1447,
      "ount": 1448,
      "ister": 1449,
      "Ġri": 1450,
      "ster": 1451,
      "Ġquatre": 1452,
      "ĠAthos": 1453,
      "Ġcin": 1454,
      "Ġsw": 1455,
      "Ġfond": 1456,
      "ĠMar": 1457,
      "Ġmaison": 1458,
      "ĠEt": 1459,
      "ĠeÃ»t": 1460,
      "ances": 1461,
      "Ġfaisait": 1462,
      "rew": 1463,
      "let": 1464,
      "Ġmonde": 1465,
      "Ġmaintenant": 1466,
      "Ġgentle": 1467,
      "Al": 1468,
      "Ġrece": 1469,
      "iens": 1470,
      "Ġvoix": 1471,
      "Ġentend": 1472,
      "par": 1473,
      "lect": 1474,
      "ating": 1475,
      "Ġquite": 1476,
      "Ġyet": 1477,
      "ows": 1478,
      "Ġchild": 1479,
      "ĠprÃ¨s": 1480,
      "Ġletter": 1481,
      "esp": 1482,
      "arn": 1483,
      "ident": 1484,
      "irent": 1485,
      "ĠQu": 1486,
      "Ġpol": 1487,
      "Ġeut": 1488,
      "Ġnature": 1489,
      "Ġalways": 1490,
      "ween": 1491,
      "yrus": 1492,
      "Ġtravers": 1493,
      "Ã©v": 1494,
      "az": 1495,
      "iness": 1496,
      "arm": 1497,
      "Ġeach": 1498,
      "amp": 1499,
      "Ġanother": 1500,
      "Ġfew": 1501,
      "That": 1502,
      "Ġbegan": 1503,
      "fois": 1504,
      "ume": 1505,
      "rer": 1506,
      "Ġdiffic": 1507,
      "ced": 1508,
      "Ġtri": 1509,
      "onde": 1510,
      "utes": 1511,
      "Ġround": 1512,
      "Ġcontr": 1513,
      "Ġdays": 1514,
      "Ġget": 1515,
      "Ġprop": 1516,
      "ĠParis": 1517,
      "teur": 1518,
      "Ġwhom": 1519,
      "Ġauc": 1520,
      "ĠGr": 1521,
      "Ġmari": 1522,
      "Ġreconn": 1523,
      "ouss": 1524,
      "icul": 1525,
      "Ġlook": 1526,
      "haps": 1527,
      "lev": 1528,
      "Ġright": 1529,
      "Ġseen": 1530,
      "Ġwater": 1531,
      "Ġquestion": 1532,
      "ying": 1533,
      "Ġviv": 1534,
      "Ġrend": 1535,
      "Ġconst": 1536,
      "Ġavez": 1537,
      "Ġsilence": 1538,
      "Ã©cria": 1539,
      "Ã©ri": 1540,
      "aig": 1541,
      "ots": 1542,
      "Ġpossible": 1543,
      "Ġwork": 1544,
      "ardinal": 1545,
      "Ġknew": 1546,
      "the": 1547,
      "tres": 1548,
      "Ġbar": 1549,
      "Ġnew": 1550,
      "Ġexpl": 1551,
      "Ġsign": 1552,
      "Ġmid": 1553,
      "Ġred": 1554,
      "Ġbetween": 1555,
      "Ġcapitaine": 1556,
      "Ġdern": 1557,
      "Ġfa": 1558,
      "ĠLe": 1559,
      "ĠdÃ©j": 1560,
      "Ġmorning": 1561,
      "Vous": 1562,
      "so": 1563,
      "ene": 1564,
      "ange": 1565,
      "ience": 1566,
      "Ġnos": 1567,
      "vert": 1568,
      "most": 1569,
      "con": 1570,
      "nÃ©e": 1571,
      "Ġquoi": 1572,
      "ĠMil": 1573,
      "Ġwhole": 1574,
      "Ġdoute": 1575,
      "Ġevening": 1576,
      "Ah": 1577,
      "aur": 1578,
      "Ġsud": 1579,
      "Ġretour": 1580,
      "Ġadd": 1581,
      "ged": 1582,
      "Ġtrav": 1583,
      "Ġadm": 1584,
      "ject": 1585,
      "ey": 1586,
      "oule": 1587,
      "Ġmind": 1588,
      "Ġvit": 1589,
      "Ġver": 1590,
      "Ġbras": 1591,
      "Ġserait": 1592,
      "Ġopen": 1593,
      "Ġlat": 1594,
      "Ġbas": 1595,
      "Ġvent": 1596,
      "Ġgiv": 1597,
      "Ġpassed": 1598,
      "Ġconsid": 1599,
      "Une": 1600,
      "ÃĢ": 1601,
      "Ġ--": 1602,
      "Ġcardinal": 1603,
      "Ġbeh": 1604,
      "Ġstre": 1605,
      "Ã®le": 1606,
      "aise": 1607,
      "Ġsea": 1608,
      "ĠprÃ©c": 1609,
      "ys": 1610,
      "Ġsouv": 1611,
      "Ġbri": 1612,
      "arly": 1613,
      "Ġlev": 1614,
      "aires": 1615,
      "selves": 1616,
      "Ġpetite": 1617,
      "My": 1618,
      "Well": 1619,
      "bt": 1620,
      "rez": 1621,
      "ilus": 1622,
      "Ġvrai": 1623,
      "Ġseul": 1624,
      "ower": 1625,
      "autilus": 1626,
      "ople": 1627,
      "ression": 1628,
      "Ġmatin": 1629,
      "ty": 1630,
      "Ġcle": 1631,
      "anche": 1632,
      "ieurs": 1633,
      "Ġpeine": 1634,
      "Nous": 1635,
      "ru": 1636,
      "ĠAl": 1637,
      "ancs": 1638,
      "Ġparler": 1639,
      "coup": 1640,
      "ham": 1641,
      "Ġdom": 1642,
      "Ġeu": 1643,
      "ĠSir": 1644,
      "aÃ®tre": 1645,
      "Ġtant": 1646,
      "Ġhon": 1647,
      "Ġtrans": 1648,
      "Ġbro": 1649,
      "Ġobl": 1650,
      "ilÃł": 1651,
      "Ġprendre": 1652,
      "Ġsouff": 1653,
      "Ġwal": 1654,
      "ingt": 1655,
      "Ġprov": 1656,
      "Ġfigure": 1657,
      "ĠcÃ´tÃ©": 1658,
      "When": 1659,
      "Ġ(": 1660,
      "Ġfro": 1661,
      "ĠMais": 1662,
      "iller": 1663,
      "Ġwhose": 1664,
      "ĠmaÃ®tre": 1665,
      "mÃªme": 1666,
      "Ġbonne": 1667,
      "Ġru": 1668,
      "outh": 1669,
      "ĠPr": 1670,
      "....": 1671,
      "Ġhommes": 1672,
      "ĠChar": 1673,
      "If": 1674,
      "Ġmille": 1675,
      "als": 1676,
      "Ġvoice": 1677,
      "Ġpleas": 1678,
      "Ġminutes": 1679,
      "Ġread": 1680,
      "Ġanim": 1681,
      "Ġimpos": 1682,
      "Ã©ment": 1683,
      "Ġbout": 1684,
      "Ġhard": 1685,
      "Ġfeel": 1686,
      "ogg": 1687,
      "Ġact": 1688,
      "Ġsince": 1689,
      "Ġjou": 1690,
      "Ġfeu": 1691,
      "fort": 1692,
      "xt": 1693,
      "ĠMonsieur": 1694,
      "Ġdone": 1695,
      "ived": 1696,
      "Ġadv": 1697,
      "Ġbeaucoup": 1698,
      "isse": 1699,
      "irl": 1700,
      "ĠMadame": 1701,
      "Ġlonger": 1702,
      "Ġwords": 1703,
      "Ãīt": 1704,
      "00": 1705,
      "Ġdix": 1706,
      "Ġsir": 1707,
      "ley": 1708,
      "Ġgros": 1709,
      "ache": 1710,
      "Ġdonner": 1711,
      "Ġpoor": 1712,
      "uy": 1713,
      "isf": 1714,
      "Ġrap": 1715,
      "sem": 1716,
      "Ġalso": 1717,
      "avez": 1718,
      "usement": 1719,
      "Ġmains": 1720,
      "ody": 1721,
      "aul": 1722,
      "dess": 1723,
      "lÃł": 1724,
      "nait": 1725,
      "Ġpauv": 1726,
      "Ġthings": 1727,
      "Ġtomb": 1728,
      "Ġset": 1729,
      "Ġgot": 1730,
      "issait": 1731,
      "homme": 1732,
      "Ġside": 1733,
      "oses": 1734,
      "Ġmany": 1735,
      "Ġcompan": 1736,
      "Ġpremier": 1737,
      "Ġbelie": 1738,
      "zio": 1739,
      "Ġlieu": 1740,
      "Ġcas": 1741,
      "Ġfather": 1742,
      "Ġvu": 1743,
      "Ġinv": 1744,
      "ĠDu": 1745,
      "undred": 1746,
      "Au": 1747,
      "liz": 1748,
      "ĠâĢĵ": 1749,
      "Ġcare": 1750,
      "Ġwr": 1751,
      "Ġhundred": 1752,
      "ired": 1753,
      "Ġallait": 1754,
      "Ġprison": 1755,
      "Ġviol": 1756,
      "rais": 1757,
      "Ġdur": 1758,
      "Ġcir": 1759,
      "Ġinde": 1760,
      "uses": 1761,
      "Ġforce": 1762,
      "Ġpeople": 1763,
      "Ġdevait": 1764,
      "Ġenfin": 1765,
      "temps": 1766,
      "uerite": 1767,
      "here": 1768,
      "Ġmieux": 1769,
      "ason": 1770,
      "Ġreven": 1771,
      "Ġless": 1772,
      "ached": 1773,
      "ured": 1774,
      "ressed": 1775,
      "Ġdoubt": 1776,
      "arguerite": 1777,
      "Ġsatisf": 1778,
      "but": 1779,
      "day": 1780,
      "Ġhour": 1781,
      "Ġang": 1782,
      "Ġfeet": 1783,
      "Ġmilieu": 1784,
      "ready": 1785,
      "Ġenough": 1786,
      "Ġalmost": 1787,
      "Ġmois": 1788,
      "ĠÃ©v": 1789,
      "ĠdÃ©jÃł": 1790,
      "!Â»": 1791,
      "onc": 1792,
      "anqu": 1793,
      "aper": 1794,
      "Ġesc": 1795,
      "fl": 1796,
      "iter": 1797,
      "Ġwait": 1798,
      "Ġfac": 1799,
      "aring": 1800,
      "omm": 1801,
      "Ġreprit": 1802,
      "ourd": 1803,
      "Ġappro": 1804,
      "Ġtaken": 1805,
      "Ġpieds": 1806,
      "How": 1807,
      "ib": 1808,
      "Ġpay": 1809,
      "Ġmother": 1810,
      "leur": 1811,
      "Ġgirl": 1812,
      "ution": 1813,
      "abeth": 1814,
      "ended": 1815,
      "ĠHe": 1816,
      "ob": 1817,
      "Ġbois": 1818,
      "Ġroute": 1819,
      "Ã©taient": 1820,
      "Ġcompl": 1821,
      "ĠdÃ©f": 1822,
      "Ġperhaps": 1823,
      "Ġsecond": 1824,
      "Ġesp": 1825,
      "Ġpresent": 1826,
      "Ġide": 1827,
      "ouver": 1828,
      "enn": 1829,
      "Ġfat": 1830,
      "quel": 1831,
      "ouvr": 1832,
      "ĠFogg": 1833,
      "Ġunderst": 1834,
      "Ġbecause": 1835,
      "ĠRoche": 1836,
      "lizabeth": 1837,
      "part": 1838,
      "ĠK": 1839,
      "ank": 1840,
      "Ġnor": 1841,
      "Ġthing": 1842,
      "riÃ¨re": 1843,
      "rest": 1844,
      "agin": 1845,
      "Ġalready": 1846,
      "ĠFr": 1847,
      "Ġfus": 1848,
      "Ġname": 1849,
      "ook": 1850,
      "ĠDieu": 1851,
      "orthos": 1852,
      "All": 1853,
      "bour": 1854,
      "not": 1855,
      "Ġmaster": 1856,
      "ific": 1857,
      "ĠSt": 1858,
      "Ġobserv": 1859,
      "Ġsomething": 1860,
      "oe": 1861,
      "Ġnouve": 1862,
      "Ġcomb": 1863,
      "emo": 1864,
      "ĠNemo": 1865,
      "Ġrespect": 1866,
      "Ġoblig": 1867,
      "cess": 1868,
      "heur": 1869,
      "enir": 1870,
      "inter": 1871,
      "Ġeux": 1872,
      "ately": 1873,
      "Ġami": 1874,
      "Ġmarch": 1875,
      "ĠVous": 1876,
      "Ġland": 1877,
      "iste": 1878,
      "ape": 1879,
      "Ġmonth": 1880,
      "Ġdisait": 1881,
      "Ġbrought": 1882,
      "ĠprÃ©sent": 1883,
      "Ġyears": 1884,
      "bres": 1885,
      "moi": 1886,
      "Ġcelle": 1887,
      "Ġplais": 1888,
      "Ġchaque": 1889,
      "ĠNe": 1890,
      "Ġblack": 1891,
      "Ġvenait": 1892,
      "Ġhowever": 1893,
      "Ġoccup": 1894,
      "Ġpays": 1895,
      "Ġgre": 1896,
      "Ġisland": 1897,
      "Ġseulement": 1898,
      "na": 1899,
      "uge": 1900,
      "iles": 1901,
      "Ġleave": 1902,
      "Ġjo": 1903,
      "Ġconvers": 1904,
      "Ġkind": 1905,
      "Ġpersonne": 1906,
      "Ġvoyage": 1907,
      "Ġsimple": 1908,
      "Ġsudden": 1909,
      "der": 1910,
      "Ġsk": 1911,
      "Ġsold": 1912,
      "quer": 1913,
      "Ġgens": 1914,
      "rim": 1915,
      "Ġtrouver": 1916,
      "Ġcinq": 1917,
      "ĠÃªtes": 1918,
      "Ġlettre": 1919,
      "hab": 1920,
      "Ġid": 1921,
      "ĠfÃ»t": 1922,
      "Ġthemselves": 1923,
      "Ġreste": 1924,
      "Ġterrible": 1925,
      "Ġorder": 1926,
      "Ġfine": 1927,
      "quet": 1928,
      "Ġvingt": 1929,
      "Ġleast": 1930,
      "Ġperd": 1931,
      "Ġperm": 1932,
      "Ġsang": 1933,
      "Ġhaut": 1934,
      "Ġnouv": 1935,
      "Ġquar": 1936,
      "ĠÃ©g": 1937,
      "nal": 1938,
      "Ġhur": 1939,
      "ĠvÃ©r": 1940,
      "antes": 1941,
      "ided": 1942,
      "oles": 1943,
      "ĠMarguerite": 1944,
      "Ġfrancs": 1945,
      "Ils": 1946,
      "ĠTh": 1947,
      "Ġspo": 1948,
      "Ġanything": 1949,
      "Ġeffet": 1950,
      "Ġsemblait": 1951,
      "jet": 1952,
      "ling": 1953,
      "Ġsure": 1954,
      "Ġpie": 1955,
      "ĠpÃ¨re": 1956,
      "Ġfire": 1957,
      "Ġris": 1958,
      "Ġsucc": 1959,
      "Ġloin": 1960,
      "Ġcompagn": 1961,
      "Ġbetter": 1962,
      "Ġcalled": 1963,
      "Ġici": 1964,
      "Ġfix": 1965,
      "enty": 1966,
      "Ġbeaut": 1967,
      "andis": 1968,
      "Ġcrois": 1969,
      "Ġfortune": 1970,
      "Ġcelui": 1971,
      "Ġworld": 1972,
      "Ġtrem": 1973,
      "Ġlorsque": 1974,
      "Ġfur": 1975,
      "Ġfai": 1976,
      "Ġbal": 1977,
      "Ġnext": 1978,
      "Ġcomment": 1979,
      "amis": 1980,
      "avoir": 1981,
      "Ġann": 1982,
      "ards": 1983,
      "Ġcharm": 1984,
      "Ġdemanda": 1985,
      "ĠMilady": 1986,
      "ville": 1987,
      "wh": 1988,
      "Ġdre": 1989,
      "eng": 1990,
      "Ã©qu": 1991,
      "Ġdeven": 1992,
      "Ġva": 1993,
      "Ġalone": 1994,
      "ĠCyrus": 1995,
      "ĠPh": 1996,
      "Ġremar": 1997,
      "Ġeverything": 1998,
      "ientÃ´t": 1999,
      "Ġindeed": 2000,
      "Puis": 2001,
      "itation": 2002,
      "Ġdec": 2003,
      "Ġtowards": 2004,
      "Ġchoses": 2005,
      "Ġstop": 2006,
      "ĠOui": 2007,
      "Ġmurm": 2008,
      "onseil": 2009,
      "Ġdifficult": 2010,
      "Ġtend": 2011,
      "ura": 2012,
      "ical": 2013,
      "ĠÃ©ch": 2014,
      "Ġcountry": 2015,
      "ĠCharles": 2016,
      "Ãītienne": 2017,
      "'ll": 2018,
      "Tout": 2019,
      "quoi": 2020,
      "unes": 2021,
      "Ġlaug": 2022,
      "Ã¨res": 2023,
      "owing": 2024,
      "ĠprÃ©": 2025,
      "Ġsole": 2026,
      "Ġvois": 2027,
      "ĠJane": 2028,
      "ĠBon": 2029,
      "Ã§ait": 2030,
      "Ġbehind": 2031,
      "Ġimpossible": 2032,
      "ich": 2033,
      "Ġdra": 2034,
      "Ġpen": 2035,
      "Ġwall": 2036,
      "quis": 2037,
      "Ġdear": 2038,
      "ousand": 2039,
      "ĠSp": 2040,
      "ĠSaint": 2041,
      "Ġarr": 2042,
      "Ġcoeur": 2043,
      "Ġdemi": 2044,
      "Ġcaptain": 2045,
      "Ġelles": 2046,
      "Ġton": 2047,
      "Ġwife": 2048,
      "Ġbord": 2049,
      "aute": 2050,
      "Ġmoy": 2051,
      "ĠdÃ©l": 2052,
      "Ġpasser": 2053,
      "ĠÃ©cl": 2054,
      "ield": 2055,
      "band": 2056,
      "uv": 2057,
      "Ġsorte": 2058,
      "Ġpat": 2059,
      "Ġpal": 2060,
      "Ġthousand": 2061,
      "Ġamong": 2062,
      "arris": 2063,
      "partout": 2064,
      "His": 2065,
      "So": 2066,
      "iques": 2067,
      "ss": 2068,
      "Ġsens": 2069,
      "Ã©m": 2070,
      "oss": 2071,
      "Ġtranqu": 2072,
      "Ġsoit": 2073,
      "Ġabove": 2074,
      "ilett": 2075,
      "ĠrÃ©g": 2076,
      "Ġsecret": 2077,
      "assepartout": 2078,
      "Ġut": 2079,
      "rendre": 2080,
      "Ġmad": 2081,
      "orn": 2082,
      "Ġnear": 2083,
      "abl": 2084,
      "ierre": 2085,
      "Ġbruit": 2086,
      "Ġemb": 2087,
      "Ġcontinued": 2088,
      "Ġappeared": 2089,
      "mith": 2090,
      "ĠThe": 2091,
      "Ġsoul": 2092,
      "Ġpare": 2093,
      "Ġmit": 2094,
      "Ġwood": 2095,
      "Ġhus": 2096,
      "Ġriv": 2097,
      "ellement": 2098,
      "Ã¢mes": 2099,
      "Ġperf": 2100,
      "Ġpresque": 2101,
      "Ġcause": 2102,
      "dessus": 2103,
      "Ġdark": 2104,
      "Ġear": 2105,
      "Ġvue": 2106,
      "Ġheav": 2107,
      "ira": 2108,
      "avant": 2109,
      "Ġfront": 2110,
      "ĠFabrice": 2111,
      "Ġpauvre": 2112,
      "Julien": 2113,
      "Que": 2114,
      "To": 2115,
      "ial": 2116,
      "Ġaurait": 2117,
      "Ġfen": 2118,
      "Ġgone": 2119,
      "tered": 2120,
      "ric": 2121,
      "Ġturned": 2122,
      "Ġkeep": 2123,
      "ĠFabrizio": 2124,
      "eor": 2125,
      "ting": 2126,
      "Ġ2": 2127,
      "Ġsett": 2128,
      "Ġev": 2129,
      "Ġvag": 2130,
      "Ġill": 2131,
      "Ġpropos": 2132,
      "ĠGod": 2133,
      "prise": 2134,
      "Ġparticul": 2135,
      "Ġswe": 2136,
      "Ġdeath": 2137,
      "ung": 2138,
      "Ġgar": 2139,
      "aves": 2140,
      "clock": 2141,
      "Ġconversation": 2142,
      "Si": 2143,
      "aff": 2144,
      "Ġfive": 2145,
      "Ġbed": 2146,
      "Ġboth": 2147,
      "Ġpassion": 2148,
      "Ġlongtemps": 2149,
      "Ġfriends": 2150,
      "Ġaim": 2151,
      "Ġsle": 2152,
      "itter": 2153,
      "ĠmÃ¨re": 2154,
      "Ġrather": 2155,
      "Ġchemin": 2156,
      "For": 2157,
      "enf": 2158,
      "esc": 2159,
      "Ġbat": 2160,
      "Ġhigh": 2161,
      "ĠgÃ©n": 2162,
      "abord": 2163,
      "Ġexist": 2164,
      "Ġfear": 2165,
      "Cette": 2166,
      "De": 2167,
      "Ġcab": 2168,
      "Ġvais": 2169,
      "Ġvos": 2170,
      "irer": 2171,
      "ĠPorthos": 2172,
      "Ġpartie": 2173,
      "Ġtwenty": 2174,
      "Ġbesoin": 2175,
      "CH": 2176,
      "fait": 2177,
      "uite": 2178,
      "Ġdest": 2179,
      "ates": 2180,
      "asion": 2181,
      "used": 2182,
      "Ġhear": 2183,
      "bles": 2184,
      "action": 2185,
      "Ġfollowed": 2186,
      "Ġcheval": 2187,
      "Ġhusband": 2188,
      "ax": 2189,
      "aill": 2190,
      "Ġtard": 2191,
      "Ġsus": 2192,
      "Ġmist": 2193,
      "ering": 2194,
      "Ġbu": 2195,
      "Ġtoget": 2196,
      "Ġthir": 2197,
      "ĠCl": 2198,
      "Ġroi": 2199,
      "ignor": 2200,
      "Ġsupp": 2201,
      "ĠMrs": 2202,
      "Ġtrouvait": 2203,
      "Alors": 2204,
      "Ġtogether": 2205,
      "heu": 2206,
      "Ġhours": 2207,
      "Ġmatter": 2208,
      "hor": 2209,
      "rup": 2210,
      "Ġlist": 2211,
      "Ġeas": 2212,
      "Ġquitt": 2213,
      "ceed": 2214,
      "Ġran": 2215,
      "irait": 2216,
      "riage": 2217,
      "Ġaller": 2218,
      "ĠSmith": 2219,
      "Ġdoes": 2220,
      "indre": 2221,
      "Ġcourse": 2222,
      "Why": 2223,
      "iÃ¨res": 2224,
      "Ġnouveau": 2225,
      "!'": 2226,
      "ov": 2227,
      "Ġpit": 2228,
      "Ġmadame": 2229,
      "Ġfol": 2230,
      "Ġfull": 2231,
      "ĠbientÃ´t": 2232,
      "Ġgiven": 2233,
      "fin": 2234,
      "Ġbest": 2235,
      "Ġinqu": 2236,
      "Ġhel": 2237,
      "Ġjoy": 2238,
      "chant": 2239,
      "Ġont": 2240,
      "resse": 2241,
      "Ġroad": 2242,
      "Ġcourt": 2243,
      "ute": 2244,
      "Ġai": 2245,
      "Ġsitu": 2246,
      "oun": 2247,
      "Ġpouss": 2248,
      "ited": 2249,
      "Ġmus": 2250,
      "ager": 2251,
      "Ġprit": 2252,
      "Ġexam": 2253,
      "ĠLond": 2254,
      "ĠÃ©l": 2255,
      "Quand": 2256,
      "Ġboat": 2257,
      "ĠPencroff": 2258,
      "Ġidea": 2259,
      "II": 2260,
      "ah": 2261,
      "aw": 2262,
      "ement": 2263,
      "over": 2264,
      "Ġder": 2265,
      "Ġlay": 2266,
      "Ġlaqu": 2267,
      "Ġrepe": 2268,
      "cha": 2269,
      "roit": 2270,
      "Ġoncle": 2271,
      "Ġcoming": 2272,
      "Ġremained": 2273,
      "Ġothers": 2274,
      "Ġraison": 2275,
      "oux": 2276,
      "Ġrun": 2277,
      "Ġunt": 2278,
      "Ġuncle": 2279,
      "ayed": 2280,
      "aptain": 2281,
      "ĠConseil": 2282,
      "Ġcannot": 2283,
      "Ġbecame": 2284,
      "AP": 2285,
      "bed": 2286,
      "iver": 2287,
      "tant": 2288,
      "Ġtill": 2289,
      "Ġable": 2290,
      "Ġmine": 2291,
      "mem": 2292,
      "imp": 2293,
      "agne": 2294,
      "ailleurs": 2295,
      "ĠX": 2296,
      "Ġbour": 2297,
      "Ġdeme": 2298,
      "arcy": 2299,
      "chÃ©": 2300,
      "Ġneed": 2301,
      "Ġconc": 2302,
      "Ġalong": 2303,
      "Ġmoney": 2304,
      "ependant": 2305,
      "Ġtandis": 2306,
      "Ġsac": 2307,
      "Ġhope": 2308,
      "Ġlost": 2309,
      "Ġcarried": 2310,
      "Ġwindow": 2311,
      "gr": 2312,
      "uf": 2313,
      "Ġsister": 2314,
      "Ġbur": 2315,
      "Ġhors": 2316,
      "Ġnav": 2317,
      "ushed": 2318,
      "acieux": 2319,
      "Ġshort": 2320,
      "Ġarms": 2321,
      "Ġconnaiss": 2322,
      "Ġreturned": 2323,
      "Ġengine": 2324,
      "ĠAramis": 2325,
      "ken": 2326,
      "rÃ©e": 2327,
      "ined": 2328,
      "Ġpain": 2329,
      "erve": 2330,
      "Ġhuit": 2331,
      "ently": 2332,
      "ĠrÃ©c": 2333,
      "arding": 2334,
      "ĠHen": 2335,
      "chesse": 2336,
      "Ġpromen": 2337,
      "Ġsavoir": 2338,
      "Ġbreak": 2339,
      "Ġgentleman": 2340,
      "Ġbelieve": 2341,
      "jout": 2342,
      "ĠÃ¢": 2343,
      "Ġlow": 2344,
      "inci": 2345,
      "erm": 2346,
      "erie": 2347,
      "Ġfurent": 2348,
      "urch": 2349,
      "ices": 2350,
      "Ġaper": 2351,
      "ission": 2352,
      "Ġimagin": 2353,
      "Ġgrands": 2354,
      "Ġposs": 2355,
      "Ġdistance": 2356,
      "Ġsmall": 2357,
      "Ġmoyen": 2358,
      "Now": 2359,
      "ake": 2360,
      "wer": 2361,
      "Ġcall": 2362,
      "Ġtrain": 2363,
      "Ġstood": 2364,
      "Ġceux": 2365,
      "Ġmaking": 2366,
      "Ġnoir": 2367,
      "ĠElizabeth": 2368,
      "ivement": 2369,
      "Ġhome": 2370,
      "chess": 2371,
      "Ġfoot": 2372,
      "Pour": 2373,
      "oh": 2374,
      "Ġay": 2375,
      "Ġlum": 2376,
      "rif": 2377,
      "Ġmeans": 2378,
      "Ġcomte": 2379,
      "Ġchap": 2380,
      "iend": 2381,
      "Ġground": 2382,
      "ĠAh": 2383,
      "ĠEng": 2384,
      "Ġlooking": 2385,
      "Ġvieux": 2386,
      "atherine": 2387,
      "Ġcorps": 2388,
      "Ġvoulait": 2389,
      "Ġkept": 2390,
      "CHAP": 2391,
      "nant": 2392,
      "ral": 2393,
      "Ġsight": 2394,
      "lez": 2395,
      "Ġvill": 2396,
      "Ġremem": 2397,
      "Ġgal": 2398,
      "appe": 2399,
      "aval": 2400,
      "ĠvoilÃł": 2401,
      "Ġsera": 2402,
      "Ġemp": 2403,
      "Ġempl": 2404,
      "Ġcommen": 2405,
      "Ġimport": 2406,
      "Ġlady": 2407,
      "ER": 2408,
      "ec": 2409,
      "fter": 2410,
      "Ġtimes": 2411,
      "anch": 2412,
      "Ġbus": 2413,
      "arch": 2414,
      "ela": 2415,
      "Ġrou": 2416,
      "andide": 2417,
      "ige": 2418,
      "ĠMole": 2419,
      "Ġdesp": 2420,
      "Ã©par": 2421,
      "ĠdÃ©b": 2422,
      "Ġposition": 2423,
      "Ġuntil": 2424,
      "Ġtom": 2425,
      "Ġcat": 2426,
      "Ġnecess": 2427,
      "Ġexcl": 2428,
      "airs": 2429,
      "rence": 2430,
      "ĠPencroft": 2431,
      "eus": 2432,
      "phe": 2433,
      "reux": 2434,
      "Ġthus": 2435,
      "teau": 2436,
      "urer": 2437,
      "emain": 2438,
      "Ġrose": 2439,
      "Ġcroy": 2440,
      "Ġperson": 2441,
      "ĠLaurent": 2442,
      "Ġgener": 2443,
      "ĠRochester": 2444,
      "Cependant": 2445,
      "cul": 2446,
      "Ġ-": 2447,
      "Ġsays": 2448,
      "Ġcut": 2449,
      "Ġrac": 2450,
      "Ġsurf": 2451,
      "Ġart": 2452,
      "bled": 2453,
      "ĠRe": 2454,
      "Ġlongue": 2455,
      "ĠpremiÃ¨re": 2456,
      "Åĵur": 2457,
      "Ġsuddenly": 2458,
      "ual": 2459,
      "Ġcase": 2460,
      "Ġbatt": 2461,
      "ingÃ©n": 2462,
      "Ġlam": 2463,
      "resh": 2464,
      "Ġsurpris": 2465,
      "Ġshore": 2466,
      "that": 2467,
      "Ġbring": 2468,
      "ĠdÃ©v": 2469,
      "Ġhorse": 2470,
      "Ġdescend": 2471,
      "aulnes": 2472,
      "grÃ©": 2473,
      "hter": 2474,
      "yrt": 2475,
      "Ġsound": 2476,
      "Ġlend": 2477,
      "onte": 2478,
      "Ġpress": 2479,
      "iture": 2480,
      "Ġmour": 2481,
      "Ġwish": 2482,
      "Ġbelle": 2483,
      "Ġeight": 2484,
      "Ġquelle": 2485,
      "Ġrid": 2486,
      "rive": 2487,
      "Ġchange": 2488,
      "Ġtrue": 2489,
      "Ġduchesse": 2490,
      "Ġking": 2491,
      "Ġretr": 2492,
      "Ġopened": 2493,
      "ized": 2494,
      "Ġmots": 2495,
      "ĠDuchess": 2496,
      "ĠSpilett": 2497,
      "yrton": 2498,
      "gÃ©": 2499,
      "pendant": 2500,
      "Ġmouth": 2501,
      "Ġfav": 2502,
      "Ġreason": 2503,
      "ĠIt": 2504,
      "iere": 2505,
      "Ġdess": 2506,
      "ĠHarris": 2507,
      "Ġattention": 2508,
      "Ġchercher": 2509,
      "ĠMaheu": 2510,
      "ĠBonacieux": 2511,
      "cteur": 2512,
      "gs": 2513,
      "iant": 2514,
      "Ġdir": 2515,
      "Ġcast": 2516,
      "ised": 2517,
      "Ġdeep": 2518,
      "lement": 2519,
      "ief": 2520,
      "aug": 2521,
      "Ġtrait": 2522,
      "Ġprince": 2523,
      "Ġprod": 2524,
      "Ġaband": 2525,
      "Ġfallait": 2526,
      "Ġsingul": 2527,
      "ĠPrince": 2528,
      "off": 2529,
      "tout": 2530,
      "Ġdanger": 2531,
      "inct": 2532,
      "itÃ©s": 2533,
      "ades": 2534,
      "room": 2535,
      "Ġmean": 2536,
      "ames": 2537,
      "Ġcependant": 2538,
      "Ġexpect": 2539,
      "Ġplusieurs": 2540,
      "ĠNed": 2541,
      "Ġclos": 2542,
      "Ġresol": 2543,
      "Ġpersonn": 2544,
      "Ġdemander": 2545,
      "Ġaucune": 2546,
      "ument": 2547,
      "Ġuse": 2548,
      "erc": 2549,
      "Ġbene": 2550,
      "Ġdead": 2551,
      "ilde": 2552,
      "Ġrent": 2553,
      "Ġwhite": 2554,
      "Ġstand": 2555,
      "Ġbrother": 2556,
      "Ġautour": 2557,
      "ussent": 2558,
      "Dans": 2559,
      "Not": 2560,
      "uc": 2561,
      "Ġajout": 2562,
      "Ġsun": 2563,
      "Ġpower": 2564,
      "Ġmauv": 2565,
      "erbert": 2566,
      "arbert": 2567,
      "ash": 2568,
      "Ġsever": 2569,
      "Ã©tÃ©": 2570,
      "Ġmem": 2571,
      "acle": 2572,
      "Ġask": 2573,
      "argent": 2574,
      "ĠfaÃ§on": 2575,
      "tÃ©": 2576,
      "Ġdiv": 2577,
      "inte": 2578,
      "Ġball": 2579,
      "ĠnÃ©c": 2580,
      "river": 2581,
      "Ġparce": 2582,
      "ably": 2583,
      "avaient": 2584,
      "ney": 2585,
      "Ġdispar": 2586,
      "Ã¢ce": 2587,
      "ĠDarcy": 2588,
      "anged": 2589,
      "udence": 2590,
      "Ġcross": 2591,
      "Ġsoup": 2592,
      "Ġfemmes": 2593,
      "aÃ®t": 2594,
      "Ġunderstand": 2595,
      "ĠnÃ©cess": 2596,
      "Mr": 2597,
      "eaulnes": 2598,
      "ler": 2599,
      "mma": 2600,
      "ĠsÃ»": 2601,
      "Ġcold": 2602,
      "Ġcamp": 2603,
      "entend": 2604,
      "ingoire": 2605,
      "teen": 2606,
      "issant": 2607,
      "ĠHol": 2608,
      "ĠHarding": 2609,
      "oiselle": 2610,
      "âĪĴâĪĴ": 2611,
      "Ġbonheur": 2612,
      "Ġhabit": 2613,
      "Ġaucun": 2614,
      "eorge": 2615,
      "Ġlaquelle": 2616,
      "One": 2617,
      "Ġess": 2618,
      "Ġmous": 2619,
      "era": 2620,
      "arc": 2621,
      "Ġhist": 2622,
      "aught": 2623,
      "ĠLand": 2624,
      "wered": 2625,
      "Ġtrouva": 2626,
      "Ġvoyait": 2627,
      "Ġappear": 2628,
      "aurais": 2629,
      "?'": 2630,
      "af": 2631,
      "ires": 2632,
      "oon": 2633,
      "ron": 2634,
      "Ġmess": 2635,
      "Ġfils": 2636,
      "Ġband": 2637,
      "Ġbott": 2638,
      "Ġhold": 2639,
      "Ġoften": 2640,
      "ety": 2641,
      "ettre": 2642,
      "olog": 2643,
      "Ġconse": 2644,
      "iche": 2645,
      "Ġsail": 2646,
      "Ġattend": 2647,
      "Ġreporter": 2648,
      "athilde": 2649,
      "igneur": 2650,
      "ĠDuchessa": 2651,
      "Ġseveral": 2652,
      "After": 2653,
      "bes": 2654,
      "ĠÃ§a": 2655,
      "Ġlit": 2656,
      "ink": 2657,
      "Ġfle": 2658,
      "Ġfif": 2659,
      "Ġboy": 2660,
      "Ġgall": 2661,
      "aded": 2662,
      "aines": 2663,
      "Ġmove": 2664,
      "Ġsurtout": 2665,
      "ĠPl": 2666,
      "Ġproc": 2667,
      "Ġpeur": 2668,
      "Ġcru": 2669,
      "Ġoffic": 2670,
      "ogn": 2671,
      "Ġenfant": 2672,
      "ĠpensÃ©e": 2673,
      "ĠdÃ©cid": 2674,
      "Ġanswered": 2675,
      "ĠrÃ©sol": 2676,
      "Ġmonths": 2677,
      "Ġsurface": 2678,
      "RE": 2679,
      "bus": 2680,
      "ool": 2681,
      "rend": 2682,
      "itable": 2683,
      "itÃ´t": 2684,
      "Ġveux": 2685,
      "ĠreÃ§": 2686,
      "uire": 2687,
      "ĠPassepartout": 2688,
      "Ġdispos": 2689,
      "ĠEh": 2690,
      "Ġeye": 2691,
      "Ġcertaine": 2692,
      "Ġsaying": 2693,
      "Ġlaisser": 2694,
      "Ġsmile": 2695,
      "Ġtaking": 2696,
      "Ġengineer": 2697,
      "Mon": 2698,
      "bo": 2699,
      "mi": 2700,
      "nÃ©": 2701,
      "tu": 2702,
      "enal": 2703,
      "Ġpap": 2704,
      "ĠpÃ¢": 2705,
      "Ġinte": 2706,
      "ĠMiss": 2707,
      "Ġamis": 2708,
      "Ġpassage": 2709,
      "Ġautant": 2710,
      "Ġsouvent": 2711,
      "ĠAlice": 2712,
      "An": 2713,
      "dge": 2714,
      "for": 2715,
      "oign": 2716,
      "rant": 2717,
      "Ġmagn": 2718,
      "Ġfact": 2719,
      "Ġquin": 2720,
      "Ġincl": 2721,
      "Ġrue": 2722,
      "Ġpard": 2723,
      "ĠMont": 2724,
      "ĠCatherine": 2725,
      "ĠLord": 2726,
      "ĠGran": 2727,
      "ĠNon": 2728,
      "Ġrock": 2729,
      "Ġvenir": 2730,
      "fully": 2731,
      "Ġvisit": 2732,
      "Ġcaus": 2733,
      "Ġfamily": 2734,
      "Ġabsol": 2735,
      "Ġlendemain": 2736,
      "ĠGranite": 2737,
      "Nautilus": 2738,
      "ras": 2739,
      "Ġpur": 2740,
      "Ġciel": 2741,
      "ĠmÃ©": 2742,
      "Ġmouve": 2743,
      "Ġble": 2744,
      "arp": 2745,
      "atur": 2746,
      "Ġreached": 2747,
      "rier": 2748,
      "Ġprob": 2749,
      "autres": 2750,
      "ĠNautilus": 2751,
      "Ġcourage": 2752,
      "Ã©rieur": 2753,
      "Ġfellow": 2754,
      "Ġdomest": 2755,
      "oor": 2756,
      "ror": 2757,
      "ĠmÃª": 2758,
      "Ġfre": 2759,
      "Ġeither": 2760,
      "idence": 2761,
      "Ġchance": 2762,
      "Ãªnal": 2763,
      "ĠCaptain": 2764,
      "emoiselle": 2765,
      "ordin": 2766,
      "ĠRÃªnal": 2767,
      "ounded": 2768,
      "Ġenfants": 2769,
      "Ġpubl": 2770,
      "Ġfamille": 2771,
      "Ġplaisir": 2772,
      "Ġpiece": 2773,
      "body": 2774,
      "uve": 2775,
      "you": 2776,
      "Ġmass": 2777,
      "Ġreal": 2778,
      "veill": 2779,
      "ainte": 2780,
      "Ġstart": 2781,
      "ĠCandide": 2782,
      "Ġpron": 2783,
      "Ġsurprise": 2784,
      "trer": 2785,
      "Ġdouce": 2786,
      "Ġappar": 2787,
      "Ġprofond": 2788,
      "iÃ¨me": 2789,
      "Ġpetits": 2790,
      "Ġstep": 2791,
      "Ġduring": 2792,
      "Ġspoke": 2793,
      "ohn": 2794,
      "erent": 2795,
      "Ġast": 2796,
      "Ġdress": 2797,
      "inion": 2798,
      "Ġcre": 2799,
      "Ġmett": 2800,
      "aste": 2801,
      "iron": 2802,
      "Ġplan": 2803,
      "Ġmod": 2804,
      "emp": 2805,
      "ĠRenal": 2806,
      "Ġsommes": 2807,
      "Ġcommand": 2808,
      "ĠJean": 2809,
      "Ġdisting": 2810,
      "Ġfright": 2811,
      "ingÃ©nieur": 2812,
      "quÃ©": 2813,
      "Ġval": 2814,
      "Ġheld": 2815,
      "Ġram": 2816,
      "Ġens": 2817,
      "abb": 2818,
      "Ġstup": 2819,
      "Ġstrange": 2820,
      "Ġsum": 2821,
      "ateau": 2822,
      "onner": 2823,
      "Ġpartir": 2824,
      "Ġwatch": 2825,
      "Ġwomen": 2826,
      "medi": 2827,
      "ĠgarÃ§on": 2828,
      "Ch": 2829,
      "Do": 2830,
      "Ne": 2831,
      "dle": 2832,
      "la": 2833,
      "occ": 2834,
      "ping": 2835,
      "yd": 2836,
      "rel": 2837,
      "ĠlÃ©g": 2838,
      "Ġbreat": 2839,
      "Ġtown": 2840,
      "aim": 2841,
      "Ġrendre": 2842,
      "otion": 2843,
      "Ã¨v": 2844,
      "acher": 2845,
      "Ġanx": 2846,
      "Ġsonge": 2847,
      "Ġwhether": 2848,
      "prÃ¨s": 2849,
      "Ġbless": 2850,
      "Ġused": 2851,
      "Ġvieille": 2852,
      "Ġchildren": 2853,
      "Ġpleasure": 2854,
      "Ġemploy": 2855,
      "ĠHolmes": 2856,
      "'ve": 2857,
      "cin": 2858,
      "rist": 2859,
      "Ġaup": 2860,
      "ater": 2861,
      "Ġvert": 2862,
      "Ġwithin": 2863,
      "ession": 2864,
      "Ġexcept": 2865,
      "ĠJim": 2866,
      "ives": 2867,
      "Ġregardait": 2868,
      "Ġmalheure": 2869,
      "Ġeffort": 2870,
      "Ġbecome": 2871,
      "Ġcolon": 2872,
      "Ġservice": 2873,
      "Ġcertainly": 2874,
      "Ġdernier": 2875,
      "ĠgÃ©nÃ©r": 2876,
      "Ġbeneath": 2877,
      "ray": 2878,
      "ually": 2879,
      "ĠÃītienne": 2880,
      "ouis": 2881,
      "Ġcreat": 2882,
      "Ġinn": 2883,
      "iments": 2884,
      "Ġmere": 2885,
      "aces": 2886,
      "Ġplay": 2887,
      "amour": 2888,
      "Ġwee": 2889,
      "Ġstri": 2890,
      "Ġpourtant": 2891,
      "Ġship": 2892,
      "ĠPro": 2893,
      "appro": 2894,
      "Ġtherefore": 2895,
      "onneur": 2896,
      "ĠOh": 2897,
      "Ġvisage": 2898,
      "iously": 2899,
      "Ġbegin": 2900,
      "Ġlivres": 2901,
      "Ġextr": 2902,
      "Ġtalk": 2903,
      "Ġplaced": 2904,
      "Ġdraw": 2905,
      "Ġsleep": 2906,
      "Ġsel": 2907,
      "ening": 2908,
      "Ġpale": 2909,
      "erait": 2910,
      "Ã©on": 2911,
      "Ġworth": 2912,
      "Ġfore": 2913,
      "Ġhop": 2914,
      "ingley": 2915,
      "usion": 2916,
      "oln": 2917,
      "ĠpassÃ©": 2918,
      "arer": 2919,
      "izon": 2920,
      "Ġglo": 2921,
      "Ġpouvoir": 2922,
      "ussitÃ´t": 2923,
      "Ġcontinua": 2924,
      "Ġexpression": 2925,
      "incoln": 2926,
      "Ġmettre": 2927,
      "ennet": 2928,
      "Ġnouvelle": 2929,
      "Ġexistence": 2930,
      "Ġhelp": 2931,
      "Eh": 2932,
      "rom": 2933,
      "ĠY": 2934,
      "Ġcam": 2935,
      "isc": 2936,
      "Ġbad": 2937,
      "orrow": 2938,
      "Ġready": 2939,
      "Ġjuge": 2940,
      "Ã¨ne": 2941,
      "amille": 2942,
      "ctor": 2943,
      "Ġnoble": 2944,
      "onnÃ©": 2945,
      "Ġrecogn": 2946,
      "alement": 2947,
      "Ġknown": 2948,
      "exp": 2949,
      "ĠdÃ©sesp": 2950,
      "Ġlorsqu": 2951,
      "Ġadded": 2952,
      "Ġearth": 2953,
      "Ġayant": 2954,
      "Pendant": 2955,
      "ails": 2956,
      "Ġcoll": 2957,
      "erable": 2958,
      "ann": 2959,
      "ilitÃ©": 2960,
      "Ġville": 2961,
      "Ġvint": 2962,
      "Ġlequel": 2963,
      "Ġgold": 2964,
      "Ġcondu": 2965,
      "ellig": 2966,
      "Ġarg": 2967,
      "Ã´te": 2968,
      "Ġpouvais": 2969,
      "Ġacqu": 2970,
      "ĠderriÃ¨re": 2971,
      "lise": 2972,
      "Ġtent": 2973,
      "Ġsavait": 2974,
      "ĠpÃ©n": 2975,
      "itions": 2976,
      "ĠcÅĵur": 2977,
      "ili": 2978,
      "elop": 2979,
      "Ġreally": 2980,
      "Ġjol": 2981,
      "Ġjud": 2982,
      "Ġmeme": 2983,
      "ĠCan": 2984,
      "Ġmanner": 2985,
      "Ġbrill": 2986,
      "Ġentered": 2987,
      "ĠHerbert": 2988,
      "Ġmoments": 2989,
      "Ġseeing": 2990,
      "ugg": 2991,
      "Ġstrong": 2992,
      "Ġelse": 2993,
      "Ġreceived": 2994,
      "aughter": 2995,
      "Oui": 2996,
      "ges": 2997,
      "lin": 2998,
      "mon": 2999,
      "tte": 3000,
      "reur": 3001,
      "Ġhat": 3002,
      "aie": 3003,
      "ales": 3004,
      "chait": 3005,
      "ieuse": 3006,
      "Ġsoci": 3007,
      "Ġentra": 3008,
      "Ġsomme": 3009,
      "Ġresp": 3010,
      "Ġspir": 3011,
      "Ġrecomm": 3012,
      "iÃ¨rement": 3013,
      "Ġthoughts": 3014,
      "Ġesprit": 3015,
      "Ġarrived": 3016,
      "Ġvoulu": 3017,
      "ection": 3018,
      "Ġtort": 3019,
      "Ġlang": 3020,
      "Ġchurch": 3021,
      "Ġstud": 3022,
      "Ġpourquoi": 3023,
      "Ġsuite": 3024,
      "ileas": 3025,
      "Ġregret": 3026,
      "odo": 3027,
      "Ġanswer": 3028,
      "Ġyear": 3029,
      "ĠvÃ©ritÃ©": 3030,
      "eut": 3031,
      "ving": 3032,
      "Ġache": 3033,
      "Ġsauv": 3034,
      "Ġleng": 3035,
      "itiÃ©": 3036,
      "Ã©an": 3037,
      "Ġvain": 3038,
      "Ġvoud": 3039,
      "ĠIs": 3040,
      "Ġneither": 3041,
      "Ġjeunes": 3042,
      "auche": 3043,
      "ĠConte": 3044,
      "Ġprinci": 3045,
      "Ġfrapp": 3046,
      "Ġgrave": 3047,
      "Ġimmedi": 3048,
      "Ġlive": 3049,
      "ompagn": 3050,
      "ross": 3051,
      "Ġoccasion": 3052,
      "ĠdonnÃ©": 3053,
      "Ġmiles": 3054,
      "Ġanimal": 3055,
      "ouvrir": 3056,
      "ĠFrance": 3057,
      "Ġtranquille": 3058,
      "ĠaperÃ§": 3059,
      "Des": 3060,
      "hui": 3061,
      "ior": 3062,
      "Ġtelle": 3063,
      "Ġled": 3064,
      "ina": 3065,
      "Ġcents": 3066,
      "Ġfresh": 3067,
      "ury": 3068,
      "cev": 3069,
      "ceived": 3070,
      "otte": 3071,
      "iful": 3072,
      "Ġavons": 3073,
      "ĠCe": 3074,
      "Ġpourrait": 3075,
      "ĠgrÃ¢ce": 3076,
      "sib": 3077,
      "Ġoui": 3078,
      "asser": 3079,
      "Ġblood": 3080,
      "Ġcroire": 3081,
      "Ġaccount": 3082,
      "ĠjournÃ©e": 3083,
      "retched": 3084,
      "aissait": 3085,
      "Ġaccept": 3086,
      "overed": 3087,
      "ĠGringoire": 3088,
      "Ġtrembl": 3089,
      "ost": 3090,
      "Ġignor": 3091,
      "Ġdaughter": 3092,
      "read": 3093,
      "Ġsin": 3094,
      "Ġsout": 3095,
      "ises": 3096,
      "Ġdeal": 3097,
      "Ġequ": 3098,
      "Ġgagn": 3099,
      "alitÃ©": 3100,
      "etre": 3101,
      "Ã¨se": 3102,
      "Ġforg": 3103,
      "Ġparoles": 3104,
      "ĠMeaulnes": 3105,
      "amed": 3106,
      "Ġchair": 3107,
      "Ġpost": 3108,
      "Ã®mes": 3109,
      "Ġcarry": 3110,
      "Ġyourself": 3111,
      "ĠmalgrÃ©": 3112,
      "Ġjustice": 3113,
      "Ġcalm": 3114,
      "oulez": 3115,
      "ĠfenÃªtre": 3116,
      "Ġvillage": 3117,
      "Ġlength": 3118,
      "IT": 3119,
      "form": 3120,
      "lu": 3121,
      "tes": 3122,
      "Ã¯": 3123,
      "Ġouv": 3124,
      "Ġtor": 3125,
      "Ġtried": 3126,
      "Ġaur": 3127,
      "ouill": 3128,
      "ased": 3129,
      "asim": 3130,
      "Ġwhy": 3131,
      "Ġmeet": 3132,
      "Ã¨ve": 3133,
      "emment": 3134,
      "cted": 3135,
      "ellent": 3136,
      "Ġdoit": 3137,
      "ĠGeorge": 3138,
      "ĠEn": 3139,
      "Ġoppos": 3140,
      "Ġglass": 3141,
      "Ġtears": 3142,
      "Ġprofonde": 3143,
      "Enfin": 3144,
      "Ġnombre": 3145,
      "Ġwanted": 3146,
      "Ġsusp": 3147,
      "Ġnecessary": 3148,
      "AprÃ¨s": 3149,
      "ris": 3150,
      "ĠdÃ¨s": 3151,
      "ener": 3152,
      "esprit": 3153,
      "ility": 3154,
      "Ġquitter": 3155,
      "aimed": 3156,
      "igu": 3157,
      "Ġprodu": 3158,
      "ĠSe": 3159,
      "Ġentr": 3160,
      "ĠHarbert": 3161,
      "idement": 3162,
      "Ġprett": 3163,
      "ontÃ©": 3164,
      "Ġcrow": 3165,
      "Ġstruck": 3166,
      "ĠconsidÃ©r": 3167,
      "Ġperfect": 3168,
      "Ġbusiness": 3169,
      "asimodo": 3170,
      "aqu": 3171,
      "fe": 3172,
      "jest": 3173,
      "jourd": 3174,
      "nor": 3175,
      "yp": 3176,
      "Ġz": 3177,
      "Ġdin": 3178,
      "Ġdame": 3179,
      "Ġfis": 3180,
      "ĠbÃ¢t": 3181,
      "lex": 3182,
      "Ġparc": 3183,
      "Ġcontem": 3184,
      "ĠfrÃ¨re": 3185,
      "ĠLincoln": 3186,
      "Here": 3187,
      "Ġappare": 3188,
      "Ġtemp": 3189,
      "attend": 3190,
      "ĠdÃ©sir": 3191,
      "Ġsortir": 3192,
      "Ġheureux": 3193,
      "Ġhappy": 3194,
      "Ġmidst": 3195,
      "Ġvague": 3196,
      "Ġsituation": 3197,
      "Pl": 3198,
      "Son": 3199,
      "TER": 3200,
      "env": 3201,
      "Ġpan": 3202,
      "Ġbody": 3203,
      "Ġthro": 3204,
      "ĠrÃª": 3205,
      "aged": 3206,
      "Ġparut": 3207,
      "Ġconven": 3208,
      "Ġstate": 3209,
      "Ġshut": 3210,
      "Ġshout": 3211,
      "Ġentire": 3212,
      "ĠdÃ©g": 3213,
      "Ġperdu": 3214,
      "ĠTre": 3215,
      "oyer": 3216,
      "Ġafin": 3217,
      "Ġsuppos": 3218,
      "Ġlarmes": 3219,
      "Ġsalle": 3220,
      "Ġbouche": 3221,
      "Ġentendu": 3222,
      "Ġjoie": 3223,
      "Her": 3224,
      "Ma": 3225,
      "oint": 3226,
      "to": 3227,
      "Ġsau": 3228,
      "Ġspr": 3229,
      "Ġlac": 3230,
      "Ġlead": 3231,
      "Ġplut": 3232,
      "ĠCamille": 3233,
      "ĠBingley": 3234,
      "Ã®ner": 3235,
      "Ġoubl": 3236,
      "anced": 3237,
      "Ġrempl": 3238,
      "Quel": 3239,
      "Ġrepro": 3240,
      "Ġwalked": 3241,
      "Ġrapid": 3242,
      "Ġobliged": 3243,
      "Ġstopped": 3244,
      "Ġsoleil": 3245,
      "Ġrepeated": 3246,
      "Ġensuite": 3247,
      "Comme": 3248,
      "Vo": 3249,
      "With": 3250,
      "ds": 3251,
      "raid": 3252,
      "Ġdut": 3253,
      "Ġsch": 3254,
      "Ġwished": 3255,
      "Ġfast": 3256,
      "Ġbag": 3257,
      "Ġnum": 3258,
      "ompl": 3259,
      "unt": 3260,
      "Ġneigh": 3261,
      "Ġparfait": 3262,
      "Ġitself": 3263,
      "ĠMathilde": 3264,
      "Ġplain": 3265,
      "nez": 3266,
      "ĠJohn": 3267,
      "Ġcoups": 3268,
      "ĠVer": 3269,
      "Ġadmir": 3270,
      "Ġcirc": 3271,
      "Ġrouge": 3272,
      "Ġpublic": 3273,
      "fs": 3274,
      "gue": 3275,
      "ĠÃī": 3276,
      "Ġsad": 3277,
      "iner": 3278,
      "Ġbig": 3279,
      "Ġhair": 3280,
      "Ġquant": 3281,
      "Ġquart": 3282,
      "Ġquick": 3283,
      "Ġgaz": 3284,
      "rois": 3285,
      "Ã©tend": 3286,
      "oly": 3287,
      "ĠMer": 3288,
      "Ġpast": 3289,
      "Ġquiet": 3290,
      "emb": 3291,
      "Ġextre": 3292,
      "Ġbris": 3293,
      "Ġclose": 3294,
      "Ġcontent": 3295,
      "Ġafraid": 3296,
      "Ġobst": 3297,
      "ĠmaÃ®tres": 3298,
      "Ġspeaking": 3299,
      "Ġiron": 3300,
      "Ġriver": 3301,
      "........": 3302,
      "Ġobserved": 3303,
      "Ġcombien": 3304,
      "Ġexclaimed": 3305,
      "Ġpretty": 3306,
      "Fabri": 3307,
      "Par": 3308,
      "bs": 3309,
      "bout": 3310,
      "eÃ»t": 3311,
      "Ġought": 3312,
      "ĠThere": 3313,
      "Ġnar": 3314,
      "ush": 3315,
      "vez": 3316,
      "ĠÃ©trange": 3317,
      "Ġdisappe": 3318,
      "Ġintellig": 3319,
      "Ġcompte": 3320,
      "Ġcharge": 3321,
      "arrÃªt": 3322,
      "Ġhappened": 3323,
      "Ġtransport": 3324,
      "issement": 3325,
      "Ġajouta": 3326,
      "Ġmouvement": 3327,
      "lais": 3328,
      "lish": 3329,
      "Ġspect": 3330,
      "Ġmilles": 3331,
      "Ã©ne": 3332,
      "Ġray": 3333,
      "Ġformed": 3334,
      "stance": 3335,
      "Ġparole": 3336,
      "Ġsuc": 3337,
      "ĠLyd": 3338,
      "aller": 3339,
      "sive": 3340,
      "Ġvoiture": 3341,
      "Ġarch": 3342,
      "ĠAyrton": 3343,
      "Ġentendre": 3344,
      "ists": 3345,
      "itted": 3346,
      "Ġcarriage": 3347,
      "Ġclo": 3348,
      "uits": 3349,
      "Ġdouble": 3350,
      "Ġcommun": 3351,
      "Ġcommenc": 3352,
      "Ġtenait": 3353,
      "Ġpriest": 3354,
      "mense": 3355,
      "Ġsometimes": 3356,
      "Ġhuman": 3357,
      "ios": 3358,
      "night": 3359,
      "Ġtim": 3360,
      "Ġtone": 3361,
      "Ġsmo": 3362,
      "ĠpiÃ¨": 3363,
      "Ġbir": 3364,
      "Ġnatur": 3365,
      "Ġvoulez": 3366,
      "Ġrequ": 3367,
      "Ġroug": 3368,
      "Ġsept": 3369,
      "very": 3370,
      "stances": 3371,
      "aude": 3372,
      "Ġmyst": 3373,
      "ablement": 3374,
      "ords": 3375,
      "Ġsombre": 3376,
      "Ġlips": 3377,
      "Ġvenu": 3378,
      "Ġsuper": 3379,
      "semble": 3380,
      "Ġquinze": 3381,
      "Ġcrowd": 3382,
      "),": 3383,
      "Non": 3384,
      "eff": 3385,
      "kes": 3386,
      "ote": 3387,
      "side": 3388,
      "ude": 3389,
      "ĠaussitÃ´t": 3390,
      "onge": 3391,
      "Ġcach": 3392,
      "ision": 3393,
      "Ã©rer": 3394,
      "Ġfart": 3395,
      "Ġfilles": 3396,
      "Ġrire": 3397,
      "vered": 3398,
      "ids": 3399,
      "ters": 3400,
      "Ġchac": 3401,
      "Ġexact": 3402,
      "ĠHouse": 3403,
      "umed": 3404,
      "Ãªtres": 3405,
      "Ġopinion": 3406,
      "Ġsuppl": 3407,
      "Ġeffect": 3408,
      "Ġferm": 3409,
      "Ġslow": 3410,
      "Ġhappiness": 3411,
      "Ġescape": 3412,
      "Ġremember": 3413,
      "Ġinterest": 3414,
      "Let": 3415,
      "ms": 3416,
      "rir": 3417,
      "rÃ©s": 3418,
      "uil": 3419,
      "Ġsend": 3420,
      "Ġwar": 3421,
      "uring": 3422,
      "Ġleaving": 3423,
      "outer": 3424,
      "idÃ©e": 3425,
      "str": 3426,
      "Ġprot": 3427,
      "ĠmaniÃ¨re": 3428,
      "Ġdoing": 3429,
      "Ġregarda": 3430,
      "Ġview": 3431,
      "Ġjuste": 3432,
      "rente": 3433,
      "Ġgarde": 3434,
      "Ġpropre": 3435,
      "Ġcompanions": 3436,
      "ĠidÃ©e": 3437,
      "Ġcompagnons": 3438,
      "Ġinqui": 3439,
      "Sa": 3440,
      "can": 3441,
      "cont": 3442,
      "Ġ3": 3443,
      "ouch": 3444,
      "ones": 3445,
      "oned": 3446,
      "ita": 3447,
      "Ġmount": 3448,
      "Ġfaute": 3449,
      "Ġbonn": 3450,
      "ative": 3451,
      "Ġvite": 3452,
      "Ġvale": 3453,
      "Ġrej": 3454,
      "cep": 3455,
      "Ã¨le": 3456,
      "Ġplant": 3457,
      "ĠchÃ¢": 3458,
      "ĠBennet": 3459,
      "Ã§ais": 3460,
      "ĠdÃ©ch": 3461,
      "Ġparti": 3462,
      "Ġaccord": 3463,
      "Ġimpat": 3464,
      "Ġhorrible": 3465,
      "ĠdÃ©part": 3466,
      "ĠprÃ©sence": 3467,
      "Ġenviron": 3468,
      "anchet": 3469,
      "ĠlumiÃ¨re": 3470,
      "ĠEnglish": 3471,
      "Ġfarther": 3472,
      "Never": 3473,
      "Or": 3474,
      "ips": 3475,
      "anches": 3476,
      "Ġwild": 3477,
      "Ġfair": 3478,
      "Ġdet": 3479,
      "Ġos": 3480,
      "ask": 3481,
      "ĠMlle": 3482,
      "Ġmanger": 3483,
      "isted": 3484,
      "Ġtouch": 3485,
      "Ġchem": 3486,
      "Ġgrandes": 3487,
      "Ġcourant": 3488,
      "Ġappel": 3489,
      "ences": 3490,
      "Ġdirection": 3491,
      "Ġsentiment": 3492,
      "Ġtenir": 3493,
      "Ġdifferent": 3494,
      "Ġrelig": 3495,
      "ĠprÃ©cip": 3496,
      "Ġsuccess": 3497,
      "ovary": 3498,
      "Ã¨vres": 3499,
      "ĠplutÃ´t": 3500,
      "rade": 3501,
      "reuse": 3502,
      "Ġsy": 3503,
      "ination": 3504,
      "ĠcÃ´te": 3505,
      "este": 3506,
      "ari": 3507,
      "Ġeaux": 3508,
      "omment": 3509,
      "aisse": 3510,
      "Ġparmi": 3511,
      "Ġconcl": 3512,
      "ication": 3513,
      "Ġstone": 3514,
      "These": 3515,
      "emple": 3516,
      "Ã´le": 3517,
      "Ġcry": 3518,
      "cious": 3519,
      "raordin": 3520,
      "Ġobject": 3521,
      "Ġhasard": 3522,
      "Ġpresence": 3523,
      "Ġaffect": 3524,
      "ĠarrivÃ©": 3525,
      "Ġlived": 3526,
      "Ġsalon": 3527,
      "Ġtrees": 3528,
      "Ġgentlemen": 3529,
      "arned": 3530,
      "Ġmariage": 3531,
      "flÃ©ch": 3532,
      "ĠLondres": 3533,
      "ĠIsland": 3534,
      "Ġimmediately": 3535,
      "Cyrus": 3536,
      "Se": 3537,
      "Ġtap": 3538,
      "Ġsait": 3539,
      "oured": 3540,
      "oubl": 3541,
      "Ġlie": 3542,
      "Ġcous": 3543,
      "Ġmiss": 3544,
      "Ġfil": 3545,
      "Ġdef": 3546,
      "Ġele": 3547,
      "Ġthick": 3548,
      "usque": 3549,
      "uth": 3550,
      "Ġformer": 3551,
      "Ġasc": 3552,
      "Ġstory": 3553,
      "illed": 3554,
      "ustom": 3555,
      "ordre": 3556,
      "ĠVal": 3557,
      "ĠrÃ©f": 3558,
      "Ġcria": 3559,
      "etting": 3560,
      "ext": 3561,
      "ompan": 3562,
      "Ġslight": 3563,
      "Ġcurios": 3564,
      "Ġcondition": 3565,
      "Ġcinqu": 3566,
      "Ġclear": 3567,
      "Ġcompany": 3568,
      "Ġfacile": 3569,
      "Ġbeautiful": 3570,
      "HE": 3571,
      "dire": 3572,
      "oque": 3573,
      "rons": 3574,
      "where": 3575,
      "Ġage": 3576,
      "inst": 3577,
      "Ġmill": 3578,
      "Ġfurn": 3579,
      "Ġgauche": 3580,
      "alier": 3581,
      "ams": 3582,
      "amment": 3583,
      "ĠBovary": 3584,
      "Ġkiss": 3585,
      "istance": 3586,
      "ĠEmma": 3587,
      "ĠNotre": 3588,
      "Ã´tel": 3589,
      "Who": 3590,
      "Ġlettres": 3591,
      "ĠrÃ©v": 3592,
      "Ġcrime": 3593,
      "Ġcharac": 3594,
      "Ġpersu": 3595,
      "Ġcorral": 3596,
      "Ġprisonn": 3597,
      "Ġcalme": 3598,
      "Ġdonna": 3599,
      "Ġsubject": 3600,
      "Ġsingle": 3601,
      "Ġrecev": 3602,
      "Ġletters": 3603,
      "Ġpolit": 3604,
      "Ġtravail": 3605,
      "ĠÃ¢me": 3606,
      "Ġessay": 3607,
      "raient": 3608,
      "uir": 3609,
      "Ġ...": 3610,
      "Ġtres": 3611,
      "Ġdrew": 3612,
      "ĠdÃ®ner": 3613,
      "Ġsqu": 3614,
      "Ġlim": 3615,
      "ities": 3616,
      "Ġmir": 3617,
      "Ġfoule": 3618,
      "Ġhun": 3619,
      "Ġvan": 3620,
      "Ġgouver": 3621,
      "alous": 3622,
      "Ġforward": 3623,
      "iced": 3624,
      "--\"": 3625,
      "Ġanc": 3626,
      "ifs": 3627,
      "Ġdisp": 3628,
      "Ġaround": 3629,
      "Ġpassait": 3630,
      "itting": 3631,
      "Ġcovered": 3632,
      "ĠÃ©crit": 3633,
      "Ġtete": 3634,
      "Ġseems": 3635,
      "Ġheads": 3636,
      "Ġdelight": 3637,
      "Ġextraordin": 3638,
      "Ġheavy": 3639,
      "Ġmauvais": 3640,
      "bb": 3641,
      "uff": 3642,
      "ĠQue": 3643,
      "Ġpus": 3644,
      "Ġpist": 3645,
      "Ġhaute": 3646,
      "lel": 3647,
      "aime": 3648,
      "Ġrepos": 3649,
      "Ġgrow": 3650,
      "Ġetre": 3651,
      "Ġrang": 3652,
      "rig": 3653,
      "Ġwhis": 3654,
      "Ġconce": 3655,
      "ĠShe": 3656,
      "ĠsiÃ¨": 3657,
      "onder": 3658,
      "ples": 3659,
      "Ġimmense": 3660,
      "Ġmarche": 3661,
      "ĠDe": 3662,
      "ĠrÃ©pÃ©t": 3663,
      "Quant": 3664,
      "Ġdemande": 3665,
      "rench": 3666,
      "Ġboard": 3667,
      "Ġturning": 3668,
      "Ġveille": 3669,
      "Ġsourire": 3670,
      "Ġdroit": 3671,
      "Ġdiam": 3672,
      "Ġchevaux": 3673,
      "Ġvivre": 3674,
      "ceeded": 3675,
      "Ġaston": 3676,
      "Ġweek": 3677,
      "hors": 3678,
      "lait": 3679,
      "Ġer": 3680,
      "Ġlut": 3681,
      "Ġpier": 3682,
      "Ġfou": 3683,
      "Ġbit": 3684,
      "Ġburn": 3685,
      "iling": 3686,
      "Ġvict": 3687,
      "antly": 3688,
      "ĠprÃ©v": 3689,
      "Ġsujet": 3690,
      "Ġapart": 3691,
      "ĠBar": 3692,
      "Ġbrave": 3693,
      "Ã¢che": 3694,
      "ĠRou": 3695,
      "Ġlibert": 3696,
      "Ġmarin": 3697,
      "Ġfaites": 3698,
      "Ġflam": 3699,
      "Ġafterwards": 3700,
      "Ġsemble": 3701,
      "Ġsilent": 3702,
      "Ġservant": 3703,
      "Ġliving": 3704,
      "Ġreflect": 3705,
      "Ġacross": 3706,
      "Ġfeeling": 3707,
      "Ġsatisfaction": 3708,
      "avantage": 3709,
      "Ġsuppose": 3710,
      "Ġnavire": 3711,
      "ĠCanad": 3712,
      "'re": 3713,
      "Be": 3714,
      "By": 3715,
      "From": 3716,
      "ca": 3717,
      "honneur": 3718,
      "ivers": 3719,
      "nous": 3720,
      "pit": 3721,
      "ĠUn": 3722,
      "Ġtel": 3723,
      "Ġdim": 3724,
      "Ġsn": 3725,
      "Ġpi": 3726,
      "Ġcord": 3727,
      "Ġgrew": 3728,
      "Ġhes": 3729,
      "irt": 3730,
      "othes": 3731,
      "ande": 3732,
      "igue": 3733,
      "Ġmeant": 3734,
      "Ġmeille": 3735,
      "aped": 3736,
      "Ġant": 3737,
      "ĠBut": 3738,
      "Ã§ons": 3739,
      "Ġprevent": 3740,
      "Ġimm": 3741,
      "Ġcoast": 3742,
      "udes": 3743,
      "ĠÂ»,": 3744,
      "Ġdirect": 3745,
      "Ġrestait": 3746,
      "Ġplein": 3747,
      "Ġtrouble": 3748,
      "Ġcolons": 3749,
      "Ġrencont": 3750,
      "ickham": 3751,
      "Ġrefus": 3752,
      "Ġraised": 3753,
      "Ġ18": 3754,
      "Ġfool": 3755,
      "Ġenvoy": 3756,
      "ĠQuasimodo": 3757,
      "Ġpolice": 3758,
      "Ġlater": 3759,
      "Ġdecided": 3760,
      "Ġdespair": 3761,
      "Ces": 3762,
      "Dame": 3763,
      "li": 3764,
      "ouff": 3765,
      "Ġcit": 3766,
      "Ġcand": 3767,
      "Ġcell": 3768,
      "Ġfum": 3769,
      "Ġhast": 3770,
      "Ġnu": 3771,
      "omet": 3772,
      "Ġtoi": 3773,
      "ingly": 3774,
      "eless": 3775,
      "antage": 3776,
      "ĠIn": 3777,
      "aven": 3778,
      "ĠprÃ©par": 3779,
      "Ġshowed": 3780,
      "ĠAnd": 3781,
      "Ã¢tre": 3782,
      "Ġloved": 3783,
      "Ġcompos": 3784,
      "Ġcaract": 3785,
      "Ġcheve": 3786,
      "ĠrÃ©flÃ©ch": 3787,
      "ĠtrouvÃ©": 3788,
      "Ġbelong": 3789,
      "Ġoccur": 3790,
      "Ġrapport": 3791,
      "000": 3792,
      "Ġviolence": 3793,
      "oncer": 3794,
      "Ġunderstood": 3795,
      "Ġperdre": 3796,
      "Ġtomber": 3797,
      "Ġbottom": 3798,
      "Ġprincip": 3799,
      "Ġcharacter": 3800,
      ",âĪĴâĪĴ": 3801,
      "Is": 3802,
      "Toute": 3803,
      "dain": 3804,
      "field": 3805,
      "hip": 3806,
      "ored": 3807,
      "Ġsen": 3808,
      "Ġpun": 3809,
      "Ġbor": 3810,
      "Ġdeg": 3811,
      "Ġod": 3812,
      "ombre": 3813,
      "Ġvast": 3814,
      "Ġtoile": 3815,
      "elve": 3816,
      "ĠthÃ©": 3817,
      "Ġgai": 3818,
      "rib": 3819,
      "roy": 3820,
      "aining": 3821,
      "Ã¨te": 3822,
      "amais": 3823,
      "ending": 3824,
      "Ġavais": 3825,
      "essor": 3826,
      "Ġshad": 3827,
      "ĠLouis": 3828,
      "Ġmach": 3829,
      "Ã®t": 3830,
      "Â»,": 3831,
      "Ġpassa": 3832,
      "Ġcontin": 3833,
      "Ġcost": 3834,
      "cially": 3835,
      "ĠVotre": 3836,
      "Ġflat": 3837,
      "Ġattent": 3838,
      "Ġreply": 3839,
      "Ġbox": 3840,
      "Ġfaisant": 3841,
      "ĠcolÃ¨re": 3842,
      "Ġrencon": 3843,
      "Ġleva": 3844,
      "sembl": 3845,
      "Ġcircon": 3846,
      "However": 3847,
      "ĠÃ©chapp": 3848,
      "Ġevident": 3849,
      "Ġhorses": 3850,
      "Ġcircum": 3851,
      "ĠmaÃ®tresse": 3852,
      "Come": 3853,
      "Pencro": 3854,
      "cur": 3855,
      "Ġdie": 3856,
      "Ġlis": 3857,
      "ĠlÃ¨vres": 3858,
      "Ġmag": 3859,
      "anse": 3860,
      "Ġfash": 3861,
      "Ġbasse": 3862,
      "ator": 3863,
      "Ġgest": 3864,
      "cean": 3865,
      "Ġensemble": 3866,
      "agine": 3867,
      "idi": 3868,
      "Ġallez": 3869,
      "iennes": 3870,
      "ĠÃ©tions": 3871,
      "ĠtraÃ®": 3872,
      "Ġsaut": 3873,
      "Ġsho": 3874,
      "pecially": 3875,
      "dered": 3876,
      "Ġnoise": 3877,
      "Ġdoig": 3878,
      "Ġenter": 3879,
      "Ġamour": 3880,
      "ateur": 3881,
      "Ġserais": 3882,
      "Ġcomple": 3883,
      "assÃ©": 3884,
      "Ġdevil": 3885,
      "Ġtermin": 3886,
      "ngth": 3887,
      "beau": 3888,
      "Ġtaille": 3889,
      "mob": 3890,
      "minence": 3891,
      "Ġdepth": 3892,
      "Ġspeed": 3893,
      "Ġthinking": 3894,
      "ĠdiffÃ©": 3895,
      "Ġordin": 3896,
      "Ġinform": 3897,
      "elton": 3898,
      "Ġfallen": 3899,
      "Ġdonnait": 3900,
      "Ġfollow": 3901,
      "Ġdifficile": 3902,
      "Ġmiddle": 3903,
      "Ġsouvenir": 3904,
      "Ġwaiting": 3905,
      "Ġremarqu": 3906,
      "CHAPTER": 3907,
      "Ġmousquet": 3908,
      "occup": 3909,
      "?Â»": 3910,
      "Ar": 3911,
      "mar": 3912,
      "Ġtrente": 3913,
      "Ġaid": 3914,
      "head": 3915,
      "Ġsavez": 3916,
      "Ġcaught": 3917,
      "erai": 3918,
      "anÃ§a": 3919,
      "Ġfight": 3920,
      "Ġfier": 3921,
      "Ġfanc": 3922,
      "entes": 3923,
      "uns": 3924,
      "Ġreach": 3925,
      "Ġenj": 3926,
      "Ġforget": 3927,
      "aches": 3928,
      "Ġchasse": 3929,
      "Ġpours": 3930,
      "Ġdonne": 3931,
      "Ġvoici": 3932,
      "Ġarriver": 3933,
      "ĠFran": 3934,
      "ertain": 3935,
      "ounds": 3936,
      "ĠElle": 3937,
      "Ã©rÃ¨se": 3938,
      "Ġgover": 3939,
      "Ġfaite": 3940,
      "Ġfaith": 3941,
      "ize": 3942,
      "ĠOn": 3943,
      "Ġpuisque": 3944,
      "Ġvoyant": 3945,
      "Ġarriva": 3946,
      "ĠWinter": 3947,
      "Ġpensa": 3948,
      "ĠdÃ©cl": 3949,
      "iqua": 3950,
      "Ġsteps": 3951,
      "Ġgenoux": 3952,
      "Ġfilled": 3953,
      "Ġjeta": 3954,
      "ucking": 3955,
      "Ġrich": 3956,
      "Ġstrength": 3957,
      "Ġrevenir": 3958,
      "Ġwalls": 3959,
      "Ġembarr": 3960,
      "Ġthirty": 3961,
      "ĠLondon": 3962,
      "ĠHenry": 3963,
      "Ġstanding": 3964,
      "ĠsÃ»r": 3965,
      "Ġsailor": 3966,
      "Ġcheveux": 3967,
      "Est": 3968,
      "gy": 3969,
      "of": 3970,
      "ouche": 3971,
      "Ġpriv": 3972,
      "Ġporter": 3973,
      "ites": 3974,
      "ĠmÃ©t": 3975,
      "ĠmÃ¨": 3976,
      "erver": 3977,
      "Ġwarm": 3978,
      "Ġfing": 3979,
      "arie": 3980,
      "Ġeat": 3981,
      "assi": 3982,
      "Ġring": 3983,
      "ademoiselle": 3984,
      "Ġunc": 3985,
      "aced": 3986,
      "icate": 3987,
      "Ġtriste": 3988,
      "Ġtruth": 3989,
      "Ġaud": 3990,
      "Ġallowed": 3991,
      "Ġdites": 3992,
      "ĠFix": 3993,
      "ĠFrench": 3994,
      "Ġimpr": 3995,
      "Ã©rÃªt": 3996,
      "ĠNab": 3997,
      "ĠrÃ©pondre": 3998,
      "Ġaffir": 3999,
      "ĠWickham": 4000,
      "Ġparlait": 4001,
      "Ġorders": 4002,
      "Ġsuivre": 4003,
      "ĠreconnaÃ®tre": 4004,
      "Ġvraiment": 4005,
      "obs": 4006,
      "Ġfixed": 4007,
      "Ġlaugh": 4008,
      "Ġrunning": 4009,
      "CHAPIT": 4010,
      "ĠpÃ¢le": 4011,
      "CHAPITRE": 4012,
      "Madame": 4013,
      "Qui": 4014,
      "_,": 4015,
      "ging": 4016,
      "lant": 4017,
      "romp": 4018,
      "sp": 4019,
      "Ġaction": 4020,
      "enait": 4021,
      "enance": 4022,
      "Ġpot": 4023,
      "Ġpierre": 4024,
      "Ġbare": 4025,
      "Ġdecl": 4026,
      "Ġinj": 4027,
      "Ġlean": 4028,
      "Ġroo": 4029,
      "ĠMos": 4030,
      "illon": 4031,
      "ĠÃ©tant": 4032,
      "ĠprÃªt": 4033,
      "essed": 4034,
      "cture": 4035,
      "elled": 4036,
      "though": 4037,
      "Ġdevoir": 4038,
      "Ġaccompl": 4039,
      "Ġseconde": 4040,
      "Ġaffaire": 4041,
      "Ġinfin": 4042,
      "Ġinterrup": 4043,
      "entement": 4044,
      "Ġsword": 4045,
      "Ġgiving": 4046,
      "Ġhardly": 4047,
      "ĠarrÃªt": 4048,
      "Ġparent": 4049,
      "Ġeasy": 4050,
      "Ġconcern": 4051,
      "Ġfavor": 4052,
      "ĠMercy": 4053,
      "Ġnatural": 4054,
      "Ġfashion": 4055,
      "ĠMosca": 4056,
      "Monsieur": 4057,
      "Ses": 4058,
      "Your": 4059,
      "eurs": 4060,
      "fr": 4061,
      "ram": 4062,
      "rouv": 4063,
      "ton": 4064,
      "ĠsÃ©": 4065,
      "Ġspl": 4066,
      "Ġline": 4067,
      "Ġpont": 4068,
      "Ġhot": 4069,
      "Ġhau": 4070,
      "lets": 4071,
      "Ġnour": 4072,
      "Ġvess": 4073,
      "Ġgout": 4074,
      "alais": 4075,
      "ether": 4076,
      "Ġseized": 4077,
      "Ġcompris": 4078,
      "Ãªter": 4079,
      "Ġaujourd": 4080,
      "Ġgran": 4081,
      "Ġcris": 4082,
      "Ġress": 4083,
      "Ġcoin": 4084,
      "oires": 4085,
      "aled": 4086,
      "Ġglad": 4087,
      "Ġmalheur": 4088,
      "Ġincre": 4089,
      "Ġpride": 4090,
      "Ġmotion": 4091,
      "Ġwindows": 4092,
      "Ġbesides": 4093,
      "Ġexcellent": 4094,
      "Ġphil": 4095,
      "Ġhonest": 4096,
      "ĠvÃ©ritable": 4097,
      "Ġcharming": 4098,
      "Ġsurprised": 4099,
      "Ġmourir": 4100,
      "Ġresolved": 4101,
      "Ġbreath": 4102,
      "ĠgÃ©nÃ©ral": 4103,
      "Ġcamar": 4104,
      "mand": 4105,
      "mos": 4106,
      "rat": 4107,
      "ouille": 4108,
      "Ġpir": 4109,
      "Ġpav": 4110,
      "itait": 4111,
      "ison": 4112,
      "istre": 4113,
      "Ġfaud": 4114,
      "Ġbank": 4115,
      "Ġnine": 4116,
      "entre": 4117,
      "Ġtop": 4118,
      "âĢľ": 4119,
      "Ġthrew": 4120,
      "rid": 4121,
      "Ġseven": 4122,
      "Ġsepar": 4123,
      "ĠInd": 4124,
      "Ġyes": 4125,
      "seau": 4126,
      "Ġforc": 4127,
      "ester": 4128,
      "Ġduc": 4129,
      "Ġstation": 4130,
      "Ġsharp": 4131,
      "Ġallow": 4132,
      "Ġgrav": 4133,
      "Ġbrusque": 4134,
      "umes": 4135,
      "Ġmarquis": 4136,
      "Ġcomprendre": 4137,
      "Ġrester": 4138,
      "Ġsentait": 4139,
      "Ġtrouve": 4140,
      "Ã©glise": 4141,
      "Ã©lia": 4142,
      "Ġassur": 4143,
      "Ġguide": 4144,
      "ouvez": 4145,
      "Ġfourn": 4146,
      "Ġdrag": 4147,
      "Ġbread": 4148,
      "Ã©chapp": 4149,
      "ruction": 4150,
      "Ġdream": 4151,
      "ĠÃ©clat": 4152,
      "Ġclosed": 4153,
      "Ġcertainement": 4154,
      "Ġcreature": 4155,
      "ĠextrÃªme": 4156,
      "Ġentirely": 4157,
      "Ġchacun": 4158,
      "Ġslowly": 4159,
      "uckingham": 4160,
      "Chap": 4161,
      "_.": 4162,
      "ares": 4163,
      "ha": 4164,
      "iance": 4165,
      "mment": 4166,
      "Ġdos": 4167,
      "Ġdorm": 4168,
      "ĠsÃ©rie": 4169,
      "Ġpaper": 4170,
      "Ġcess": 4171,
      "Ġcours": 4172,
      "ishing": 4173,
      "Ġfoi": 4174,
      "Ġhid": 4175,
      "Ġore": 4176,
      "Ġlaid": 4177,
      "rire": 4178,
      "agÃ©": 4179,
      "Ġnearly": 4180,
      "Ġchant": 4181,
      "Ġmoved": 4182,
      "Ġappl": 4183,
      "Ġnote": 4184,
      "Ġprenait": 4185,
      "Ġimmob": 4186,
      "Ġmarqu": 4187,
      "Ġmarriage": 4188,
      "Ġperceived": 4189,
      "Ġcraig": 4190,
      "Ġresta": 4191,
      "Ġespecially": 4192,
      "Ġpuiss": 4193,
      "Ġentrer": 4194,
      "tempt": 4195,
      "Ġinflu": 4196,
      "Ġfollowing": 4197,
      "Ġdroite": 4198,
      "Ġreconnaiss": 4199,
      "Ġfroid": 4200,
      "Ġwrite": 4201,
      "ĠPhileas": 4202,
      "Ġsacrif": 4203,
      "Ġretrouv": 4204,
      "ĠnÃ©cessaire": 4205,
      "Ġmagnific": 4206,
      "ĠmÃ©de": 4207,
      "Ġbeginning": 4208,
      "Ġdisappeared": 4209,
      "Ġcinquante": 4210,
      "lelia": 4211,
      ",--": 4212,
      "ON": 4213,
      "St": 4214,
      "by": 4215,
      "co": 4216,
      "ias": 4217,
      "lÃ©": 4218,
      "sou": 4219,
      "ĠÃĢ": 4220,
      "ĠtÃ©": 4221,
      "Ġsense": 4222,
      "oureux": 4223,
      "Ġminu": 4224,
      "Ġfant": 4225,
      "omais": 4226,
      "âĢĿ": 4227,
      "Ġinut": 4228,
      "Ġgro": 4229,
      "Ġgrie": 4230,
      "Ġjardin": 4231,
      "Ġenem": 4232,
      "Ġneck": 4233,
      "Ġneuf": 4234,
      "Ġcomes": 4235,
      "acre": 4236,
      "icient": 4237,
      "Ġatte": 4238,
      "osop": 4239,
      "ĠmoitiÃ©": 4240,
      "Ġtry": 4241,
      "Ġweak": 4242,
      "ĠChe": 4243,
      "Ġsoft": 4244,
      "elling": 4245,
      "Ġgrat": 4246,
      "ĠSi": 4247,
      "itement": 4248,
      "Ġprep": 4249,
      "Ã©rÃ©": 4250,
      "itten": 4251,
      "ĠconsÃ©qu": 4252,
      "Ġregards": 4253,
      "Ġregarder": 4254,
      "ettes": 4255,
      "Ġladies": 4256,
      "Ġtalking": 4257,
      "Åĵil": 4258,
      "Ġcontraire": 4259,
      "ĠderniÃ¨re": 4260,
      "Ġhonour": 4261,
      "ĠNeb": 4262,
      "Ġdread": 4263,
      "Ġdifficulty": 4264,
      "Ġburst": 4265,
      "Ġdinner": 4266,
      "ĠtÃ©mo": 4267,
      "Ġminute": 4268,
      "'m": 4269,
      "hum": 4270,
      "iait": 4271,
      "rine": 4272,
      "ĠYou": 4273,
      "Ġtreat": 4274,
      "Ġdavantage": 4275,
      "inet": 4276,
      "Ġpill": 4277,
      "Ġpense": 4278,
      "erre": 4279,
      "quels": 4280,
      "Ġdehors": 4281,
      "Ġho": 4282,
      "ara": 4283,
      "lection": 4284,
      "Ġnone": 4285,
      "Ġvivement": 4286,
      "urope": 4287,
      "Ġrepris": 4288,
      "Ġheight": 4289,
      "ĠMus": 4290,
      "aprÃ¨s": 4291,
      "Ġchaise": 4292,
      "ular": 4293,
      "illi": 4294,
      "urez": 4295,
      "Ġprol": 4296,
      "Ã¢me": 4297,
      "ĠÃ©m": 4298,
      "Ġclass": 4299,
      "Ġspread": 4300,
      "Ġattach": 4301,
      "Ġattendre": 4302,
      "epuis": 4303,
      "Ġconsent": 4304,
      "Ġjourney": 4305,
      "Ġcorner": 4306,
      "Ġvisible": 4307,
      "Ġpenser": 4308,
      "Ġwaters": 4309,
      "Ġportait": 4310,
      "Ġslip": 4311,
      "ĠmisÃ©r": 4312,
      "Ã©rieure": 4313,
      "ĠMajest": 4314,
      "Ġbrig": 4315,
      "Ġbroken": 4316,
      "ĠKing": 4317,
      "Ġmistress": 4318,
      "eusse": 4319,
      "arcely": 4320,
      "ĠMontsou": 4321,
      "Ġrocks": 4322,
      "Ġphilosop": 4323,
      "Ph": 4324,
      "Where": 4325,
      "aurait": 4326,
      "dre": 4327,
      "happ": 4328,
      "Ġsor": 4329,
      "Ġmention": 4330,
      "Ġfree": 4331,
      "Ġbell": 4332,
      "Ġocean": 4333,
      "ashed": 4334,
      "ork": 4335,
      "omin": 4336,
      "oman": 4337,
      "Ġvient": 4338,
      "Ġlaw": 4339,
      "Ġgetting": 4340,
      "Ġjoin": 4341,
      "tead": 4342,
      "Ġrage": 4343,
      "Ġriche": 4344,
      "aintenant": 4345,
      "Ġpasse": 4346,
      "Ġdesire": 4347,
      "aph": 4348,
      "Ġattempt": 4349,
      "arde": 4350,
      "Ġauquel": 4351,
      "Ġard": 4352,
      "ĠBuckingham": 4353,
      "Ġkill": 4354,
      "Ġdoctor": 4355,
      "Ġpoign": 4356,
      "ĠHomais": 4357,
      "Ġpassing": 4358,
      "Ġserious": 4359,
      "Ġclothes": 4360,
      "Ġtwelve": 4361,
      "ĠTrÃ©": 4362,
      "Ġusual": 4363,
      "Ġspot": 4364,
      "Ġempt": 4365,
      "Ġembr": 4366,
      "Ġcommon": 4367,
      "ollins": 4368,
      "Ġdistur": 4369,
      "ĠChaval": 4370,
      "Ġarrivait": 4371,
      "Ġdepart": 4372,
      "Ġbelow": 4373,
      "Ġmorce": 4374,
      "Ġlaissa": 4375,
      "portun": 4376,
      "esseur": 4377,
      "Ġheureuse": 4378,
      "Ġgarden": 4379,
      "Ġdiscovered": 4380,
      "umeur": 4381,
      "Ġretourner": 4382,
      "aperÃ§": 4383,
      "Ġapproach": 4384,
      "ĠNew": 4385,
      "Ġquarter": 4386,
      "Ġfaim": 4387,
      "Ġdestin": 4388,
      "Ġeasily": 4389,
      "Ġpardon": 4390,
      "Ġdrawing": 4391,
      "Ġnumber": 4392,
      "ĠLydia": 4393,
      "ĠchÃ¢teau": 4394,
      "Mil": 4395,
      "Tous": 4396,
      "jets": 4397,
      "ned": 4398,
      "oqu": 4399,
      "ply": 4400,
      "ract": 4401,
      "uie": 4402,
      "vaque": 4403,
      "yond": 4404,
      "Ġtir": 4405,
      "Ġdents": 4406,
      "Ġlue": 4407,
      "Ġpul": 4408,
      "Ġpath": 4409,
      "Ġpict": 4410,
      "Ġcad": 4411,
      "Ġnul": 4412,
      "Ġvig": 4413,
      "urt": 4414,
      "Ġleag": 4415,
      "rice": 4416,
      "Ġbeyond": 4417,
      "Ġgris": 4418,
      "issaient": 4419,
      "Ġpoit": 4420,
      "Ġprec": 4421,
      "appel": 4422,
      "ĠagrÃ©": 4423,
      "aken": 4424,
      "Ġquelqu": 4425,
      "Ġblanc": 4426,
      "ĠTop": 4427,
      "Ġspite": 4428,
      "Ġdouleur": 4429,
      "Ġreport": 4430,
      "ency": 4431,
      "ishment": 4432,
      "Ġscarcely": 4433,
      "Ġdemandai": 4434,
      "erville": 4435,
      "Ã©di": 4436,
      "Ġvoulut": 4437,
      "Ġhorizon": 4438,
      "Ġconnais": 4439,
      "Ġplaces": 4440,
      "Ġrappro": 4441,
      "Ġlatter": 4442,
      "Ġconsider": 4443,
      "Ġwalk": 4444,
      "Ġsky": 4445,
      "ĠÃ©clair": 4446,
      "Ġcampagne": 4447,
      "Ġappearance": 4448,
      "Ġpapier": 4449,
      "Ġdomestique": 4450,
      "ĠauprÃ¨s": 4451,
      "Ġself": 4452,
      "ĠdÃ©sespoir": 4453,
      "Ġschool": 4454,
      "cepter": 4455,
      "Ġenjoy": 4456,
      "Elizabeth": 4457,
      "Me": 4458,
      "des": 4459,
      "hood": 4460,
      "kn": 4461,
      "naient": 4462,
      "ued": 4463,
      "Ġsave": 4464,
      "ouer": 4465,
      "Ġlate": 4466,
      "Ġcart": 4467,
      "Ġhar": 4468,
      "arriv": 4469,
      "Ġthrow": 4470,
      "ality": 4471,
      "Ġuns": 4472,
      "Ġseated": 4473,
      "Ġbeat": 4474,
      "Ãªcher": 4475,
      "Ġweather": 4476,
      "Ġavions": 4477,
      "Ġshop": 4478,
      "ĠPour": 4479,
      "ĠAd": 4480,
      "ĠBr": 4481,
      "Ġpret": 4482,
      "ĠRue": 4483,
      "ĠNous": 4484,
      "aking": 4485,
      "Ġresumed": 4486,
      "cient": 4487,
      "Ġopportun": 4488,
      "Ġscene": 4489,
      "ĠrÃ©pondis": 4490,
      "Laurent": 4491,
      "Ġaffection": 4492,
      "expl": 4493,
      "Ġguard": 4494,
      "Ġprix": 4495,
      "Ġinterv": 4496,
      "Ġcentre": 4497,
      "ttes": 4498,
      "Ġsimply": 4499,
      "iana": 4500,
      "Ġrappel": 4501,
      "Ġwalking": 4502,
      "Ġnouvelles": 4503,
      "Ġchapeau": 4504,
      "Ġgeneral": 4505,
      "Ġmessieurs": 4506,
      "ĠpÃ©nÃ©t": 4507,
      "ĠcaractÃ¨re": 4508,
      "Milady": 4509,
      "Sur": 4510,
      "nent": 4511,
      "nce": 4512,
      "ode": 4513,
      "pent": 4514,
      "ub": 4515,
      "ĠâĢľ": 4516,
      "onter": 4517,
      "Ġpend": 4518,
      "Ġpouvez": 4519,
      "Ġcuis": 4520,
      "anim": 4521,
      "Ġfont": 4522,
      "Ġom": 4523,
      "atic": 4524,
      "ilt": 4525,
      "ald": 4526,
      "roll": 4527,
      "Ã©tude": 4528,
      "ands": 4529,
      "Ġforme": 4530,
      "tern": 4531,
      "terre": 4532,
      "Ġshow": 4533,
      "Ġalla": 4534,
      "Ġsug": 4535,
      "ouvrit": 4536,
      "ĠbrÃ»": 4537,
      "isson": 4538,
      "artin": 4539,
      "Ã§ai": 4540,
      "lesh": 4541,
      "Ġblow": 4542,
      "Ġblue": 4543,
      "Ġfuture": 4544,
      "jeun": 4545,
      "Ġdidn": 4546,
      "Ġcommence": 4547,
      "Ġpouvaient": 4548,
      "Ġinstru": 4549,
      "Ġinstinct": 4550,
      "Ġplease": 4551,
      "Ã©dÃ©on": 4552,
      "ĠparlÃ©": 4553,
      "Ġfinished": 4554,
      "Ġveut": 4555,
      "Ġquoique": 4556,
      "Ġstreet": 4557,
      "Ġbroke": 4558,
      "Ġwritten": 4559,
      "Ġviolent": 4560,
      "while": 4561,
      "Ġdarkness": 4562,
      "Ġfavour": 4563,
      "Nothing": 4564,
      "Ġhistoire": 4565,
      "Ġmalheureux": 4566,
      "Ġneighbour": 4567,
      "Ġnarrow": 4568,
      "Ġpoursuiv": 4569,
      "Ġpoitrine": 4570,
      "Lors": 4571,
      "Zach": 4572,
      "aft": 4573,
      "cation": 4574,
      "hist": 4575,
      "rin": 4576,
      "ĠdÃ»": 4577,
      "Ġdressed": 4578,
      "Ġlif": 4579,
      "Ġloud": 4580,
      "Ġligne": 4581,
      "enant": 4582,
      "Ġpa": 4583,
      "Ġpure": 4584,
      "ĠmÃ©p": 4585,
      "Ġflesh": 4586,
      "Ġtoward": 4587,
      "Ġrelev": 4588,
      "ouses": 4589,
      "meme": 4590,
      "Ġsearch": 4591,
      "ols": 4592,
      "ĠparaÃ®t": 4593,
      "ulg": 4594,
      "Ġmoindre": 4595,
      "Ġpourrais": 4596,
      "ĠprÃªtre": 4597,
      "kete": 4598,
      "Ġexec": 4599,
      "agement": 4600,
      "ively": 4601,
      "Ġabbe": 4602,
      "Ġlongues": 4603,
      "ĠcrÃ©": 4604,
      "Ġremain": 4605,
      "ĠrÃ©ponse": 4606,
      "Ġdouze": 4607,
      "Ġcanot": 4608,
      "Ġterr": 4609,
      "Ġscience": 4610,
      "riere": 4611,
      "Ġsupport": 4612,
      "Ġjambes": 4613,
      "ĠarrivÃ©e": 4614,
      "Ã©loign": 4615,
      "ĠWest": 4616,
      "Ġfini": 4617,
      "Ġfaisaient": 4618,
      "Ġferait": 4619,
      "Ġstranger": 4620,
      "Ġstrugg": 4621,
      "oudre": 4622,
      "Ġindiff": 4623,
      "Ġconduis": 4624,
      "Ġdiscover": 4625,
      "Ġirrit": 4626,
      "Ġentendit": 4627,
      "Ġquarante": 4628,
      "Ġsweet": 4629,
      "ounced": 4630,
      "ĠEngland": 4631,
      "Ġparcour": 4632,
      "VoilÃł": 4633,
      "Ġextrem": 4634,
      "Ġhauteur": 4635,
      "ĠMuskete": 4636,
      "Zacharie": 4637,
      "Athos": 4638,
      "Depuis": 4639,
      "ians": 4640,
      "pose": 4641,
      "way": 4642,
      "xc": 4643,
      "Ġtum": 4644,
      "ĠsÃ©par": 4645,
      "Ġmel": 4646,
      "ĠmÃ©r": 4647,
      "Ġwon": 4648,
      "Ġbais": 4649,
      "ĠhÃ©s": 4650,
      "leterre": 4651,
      "atures": 4652,
      "Ġvin": 4653,
      "Ġlegs": 4654,
      "alth": 4655,
      "rote": 4656,
      "Ġparven": 4657,
      "Ġparaissait": 4658,
      "Ġplateau": 4659,
      "uls": 4660,
      "Ãªche": 4661,
      "Ġstay": 4662,
      "ified": 4663,
      "ifique": 4664,
      "Ġmonter": 4665,
      "Ġsoin": 4666,
      "essie": 4667,
      "Ġexper": 4668,
      "ĠPierre": 4669,
      "geois": 4670,
      "Ġpeup": 4671,
      "Ġdois": 4672,
      "ĠFelton": 4673,
      "ĠRod": 4674,
      "Ġcouple": 4675,
      "Ġmarried": 4676,
      "onnu": 4677,
      "itty": 4678,
      "Ġagree": 4679,
      "Ġouver": 4680,
      "Ġcomplet": 4681,
      "ancer": 4682,
      "raw": 4683,
      "ngleterre": 4684,
      "Ġobtain": 4685,
      "Ġtemper": 4686,
      "Ġpleine": 4687,
      "Ġteeth": 4688,
      "Ġpremiers": 4689,
      "Ġsuivant": 4690,
      "Ġrevint": 4691,
      "Ġsufficient": 4692,
      "Ġtalked": 4693,
      "Ġdiable": 4694,
      "fortun": 4695,
      "Ġadvantage": 4696,
      "Ġrapidement": 4697,
      "Ġpieces": 4698,
      "what": 4699,
      "Ġmurmured": 4700,
      "ĠprÃ©f": 4701,
      "Ġdrawn": 4702,
      "ĠHarrison": 4703,
      "Ġconsequ": 4704,
      "Ġacquaint": 4705,
      "Ġforgot": 4706,
      "Ġperfectly": 4707,
      "ĠTreville": 4708,
      "ĠTherese": 4709,
      "Ġinfluence": 4710,
      "Du": 4711,
      "Every": 4712,
      "Gr": 4713,
      "aze": 4714,
      "bor": 4715,
      "cÃ©an": 4716,
      "jor": 4717,
      "ket": 4718,
      "ores": 4719,
      "wo": 4720,
      "wed": 4721,
      "Ġtall": 4722,
      "Ġlire": 4723,
      "Ġlower": 4724,
      "Ġcaval": 4725,
      "isÃ©ment": 4726,
      "Ġwrote": 4727,
      "Ġfly": 4728,
      "Ġfish": 4729,
      "Ġban": 4730,
      "ommes": 4731,
      "ously": 4732,
      "oted": 4733,
      "acon": 4734,
      "ulf": 4735,
      "ĠÃ©tr": 4736,
      "endar": 4737,
      "upt": 4738,
      "Ġceci": 4739,
      "Ġprote": 4740,
      "Ġmanqu": 4741,
      "ĠBel": 4742,
      "ĠFri": 4743,
      "ĠFair": 4744,
      "ĠdÃ©jeun": 4745,
      "Ġmarry": 4746,
      "ĠÃ©lev": 4747,
      "Ġcrainte": 4748,
      "Ġspent": 4749,
      "ĠVo": 4750,
      "Ġshoulders": 4751,
      "ishop": 4752,
      "Ġgreatly": 4753,
      "Ġsentiments": 4754,
      "Ġknows": 4755,
      "Ġjusque": 4756,
      "erved": 4757,
      "Ġvisite": 4758,
      "Ġpensait": 4759,
      "Ġassis": 4760,
      "Ġguerre": 4761,
      "iquer": 4762,
      "Ġdiscuss": 4763,
      "Ġcountenance": 4764,
      "Ġgrosse": 4765,
      "Ġwaited": 4766,
      "Ġgreen": 4767,
      "Ġmurmura": 4768,
      "Ġrivage": 4769,
      "affaire": 4770,
      "Ġexpected": 4771,
      "Ġfifteen": 4772,
      "Ġofficer": 4773,
      "abbÃ©": 4774,
      "Ġopposite": 4775,
      "Ġquickly": 4776,
      "Ġoccurred": 4777,
      "Ġinutile": 4778,
      "Am": 4779,
      "IS": 4780,
      "bon": 4781,
      "fessor": 4782,
      "gan": 4783,
      "gment": 4784,
      "jour": 4785,
      "lam": 4786,
      "pped": 4787,
      "Ġtellement": 4788,
      "Ġsavais": 4789,
      "oupe": 4790,
      "Ġlying": 4791,
      "Ġcave": 4792,
      "Ġwit": 4793,
      "ĠfÃ¢": 4794,
      "Ġhill": 4795,
      "Ġhung": 4796,
      "entendre": 4797,
      "oming": 4798,
      "aight": 4799,
      "Ġgrim": 4800,
      "veille": 4801,
      "Ġunhapp": 4802,
      "ching": 4803,
      "Ġenorm": 4804,
      "Ġbeast": 4805,
      "idemment": 4806,
      "Ġforces": 4807,
      "ested": 4808,
      "Ġplat": 4809,
      "Ġchat": 4810,
      "Ġchien": 4811,
      "Ġnotice": 4812,
      "osse": 4813,
      "Ġpere": 4814,
      "Ġnoire": 4815,
      "Ġkilled": 4816,
      "Ã§ant": 4817,
      "atever": 4818,
      "Ġparts": 4819,
      "Ġloge": 4820,
      "angers": 4821,
      "Ġclim": 4822,
      "Ġdemain": 4823,
      "Ġapport": 4824,
      "Ġregardant": 4825,
      "ĠÃ©cout": 4826,
      "Ġtroupe": 4827,
      "Ġstraight": 4828,
      "Ġtuer": 4829,
      "ĠlaissÃ©": 4830,
      "Ġexpress": 4831,
      "Ġknees": 4832,
      "Ġphys": 4833,
      "onseigneur": 4834,
      "Ġconvic": 4835,
      "Ġjeter": 4836,
      "ĠLevaque": 4837,
      "ĠespÃ©r": 4838,
      "ĠThÃ©rÃ¨se": 4839,
      "Ġutter": 4840,
      "ĠMaheude": 4841,
      "Ġmovement": 4842,
      "ĠlÃ©gÃ¨re": 4843,
      "Ġhoped": 4844,
      "Ġgloom": 4845,
      "Ġcontempl": 4846,
      "Ġparfaitement": 4847,
      "Ġrecevoir": 4848,
      "Ġvessel": 4849,
      "Ġenormous": 4850,
      "House": 4851,
      "Jamais": 4852,
      "Mme": 4853,
      "Sir": 4854,
      "ailles": 4855,
      "han": 4856,
      "morrow": 4857,
      "reau": 4858,
      "enod": 4859,
      "inÃ©": 4860,
      "Ġpic": 4861,
      "Ġpaid": 4862,
      "Ġmut": 4863,
      "Ã©ress": 4864,
      "Ġwonder": 4865,
      "Ġgig": 4866,
      "Ġjug": 4867,
      "alt": 4868,
      "Ġrare": 4869,
      "rested": 4870,
      "Ġcomfort": 4871,
      "acles": 4872,
      "Ġmoon": 4873,
      "Ġtromp": 4874,
      "ifice": 4875,
      "ĠCollins": 4876,
      "Ġpray": 4877,
      "ĠLes": 4878,
      "ĠBl": 4879,
      "astic": 4880,
      "Ġprend": 4881,
      "Ġrobe": 4882,
      "Ġago": 4883,
      "Ġblanche": 4884,
      "Jean": 4885,
      "Ġcoff": 4886,
      "Ġrecher": 4887,
      "udent": 4888,
      "Ġappart": 4889,
      "Ġfloor": 4890,
      "Ġoffer": 4891,
      "Ġaccompan": 4892,
      "Ġpossib": 4893,
      "Ġglance": 4894,
      "Ġeffray": 4895,
      "ĠpensÃ©es": 4896,
      "Ġwatched": 4897,
      "meric": 4898,
      "Ġordre": 4899,
      "Ġordres": 4900,
      "Ġchamp": 4901,
      "Ġhorror": 4902,
      "Ġautrefois": 4903,
      "Ġsembla": 4904,
      "Ġsteam": 4905,
      "Ġcondam": 4906,
      "Ġvolcan": 4907,
      "Ġdrink": 4908,
      "Ġformid": 4909,
      "Ġnews": 4910,
      "Ġtomba": 4911,
      "Ġlieues": 4912,
      "ĠÃ©vÃ©ne": 4913,
      "Ġfaces": 4914,
      "Ġfatal": 4915,
      "Ġrising": 4916,
      "enfant": 4917,
      "Ġthird": 4918,
      "Ġlistened": 4919,
      "Ġimagination": 4920,
      "ĠPlanchet": 4921,
      "Ġjolie": 4922,
      "Ġspectacle": 4923,
      "ĠValenod": 4924,
      "ĠmÃ¨tres": 4925,
      "Ġroof": 4926,
      "Ġsplend": 4927,
      "ĠTrÃ©ville": 4928,
      "AR": 4929,
      "LÃł": 4930,
      "Per": 4931,
      "Passepartout": 4932,
      "auss": 4933,
      "fax": 4934,
      "kely": 4935,
      "light": 4936,
      "ners": 4937,
      "with": 4938,
      "Ġ6": 4939,
      "Ġtirer": 4940,
      "Ġdri": 4941,
      "eness": 4942,
      "ony": 4943,
      "Ġwinter": 4944,
      "Ġbaiss": 4945,
      "Ġbateau": 4946,
      "Ġdebout": 4947,
      "ĠhÃ©": 4948,
      "Ġhall": 4949,
      "Ġhang": 4950,
      "Ġvaste": 4951,
      "usse": 4952,
      "Ġreine": 4953,
      "Ġgor": 4954,
      "adm": 4955,
      "ries": 4956,
      "oland": 4957,
      "ĠMademoiselle": 4958,
      "hern": 4959,
      "ĠÃ©tat": 4960,
      "Ġtrace": 4961,
      "ctions": 4962,
      "Ġdisant": 4963,
      "Ġpeace": 4964,
      "onds": 4965,
      "Ġdocteur": 4966,
      "usted": 4967,
      "uish": 4968,
      "ĠGu": 4969,
      "onnÃ©e": 4970,
      "ĠÃ©nor": 4971,
      "Ġdevint": 4972,
      "Ġblind": 4973,
      "Ġressembl": 4974,
      "Ġvenaient": 4975,
      "Ġknowing": 4976,
      "bered": 4977,
      "iquement": 4978,
      "Ġcalcul": 4979,
      "Ġferme": 4980,
      "Ġchamber": 4981,
      "Ġmurder": 4982,
      "venture": 4983,
      "Ġdescri": 4984,
      "Ġconvain": 4985,
      "ĠAlors": 4986,
      "Ġfroide": 4987,
      "Ġbelieved": 4988,
      "Ġgrey": 4989,
      "ĠClÃ©lia": 4990,
      "Ġlamp": 4991,
      "Ġpersonnes": 4992,
      "Ġfrequ": 4993,
      "Ġworthy": 4994,
      "Ġduty": 4995,
      "Ġintelligence": 4996,
      "arrÃªta": 4997,
      "Ġvalet": 4998,
      "like": 4999,
      "Ġparents": 5000,
      "Ġprepared": 5001,
      "Ġopportunity": 5002,
      "ĠFairfax": 5003,
      "Ġconvicts": 5004,
      "'d": 5005,
      ".,": 5006,
      "Aussi": 5007,
      "Bes": 5008,
      "IN": 5009,
      "lock": 5010,
      "mit": 5011,
      "mÃª": 5012,
      "ront": 5013,
      "va": 5014,
      "vant": 5015,
      "Ġlune": 5016,
      "Ġpil": 5017,
      "Ġpity": 5018,
      "Ġmaid": 5019,
      "Ã©lev": 5020,
      "Ġwrit": 5021,
      "Ġwaves": 5022,
      "Ġfi": 5023,
      "Ġfabri": 5024,
      "Ġber": 5025,
      "Ġbound": 5026,
      "arre": 5027,
      "Ġears": 5028,
      "Ġelect": 5029,
      "enth": 5030,
      "oral": 5031,
      "ories": 5032,
      "Ġvap": 5033,
      "urg": 5034,
      "Ġthreat": 5035,
      "Ġinhab": 5036,
      "Ġgendar": 5037,
      "Ġric": 5038,
      "Ġrav": 5039,
      "Ġroul": 5040,
      "irard": 5041,
      "riers": 5042,
      "Ġbeaux": 5043,
      "Ã¨ce": 5044,
      "olphe": 5045,
      "ĠClelia": 5046,
      "Ġmontrer": 5047,
      "Ġshook": 5048,
      "Ã©cl": 5049,
      "Ġprojet": 5050,
      "ĠSc": 5051,
      "ĠLong": 5052,
      "Ġarbres": 5053,
      "ĠAll": 5054,
      "ĠAmeric": 5055,
      "issons": 5056,
      "Ġenth": 5057,
      "Ġintim": 5058,
      "Ġcouvert": 5059,
      "Ġouvert": 5060,
      "Ġremettre": 5061,
      "ĠrÃ©pl": 5062,
      "Ġdoux": 5063,
      "Ġattendant": 5064,
      "Ġpointed": 5065,
      "Ġoffered": 5066,
      "Ġconsc": 5067,
      "Ġrepent": 5068,
      "Ġgreatest": 5069,
      "Ġsemaine": 5070,
      "Ġaffaires": 5071,
      "Ġquelquefois": 5072,
      "exc": 5073,
      "Ġprofound": 5074,
      "Ġrenvers": 5075,
      "ĠrÃ©sult": 5076,
      "ĠdÃ©pl": 5077,
      "Ġbeside": 5078,
      "Ġexcuse": 5079,
      "Ġdescendre": 5080,
      "Ġsuffis": 5081,
      "ĠjetÃ©": 5082,
      "Ġsoldats": 5083,
      "ĠidÃ©es": 5084,
      "Ġcompagnie": 5085,
      "ĠannÃ©es": 5086,
      "ĠdÃ©lic": 5087,
      "Ġbourgeois": 5088,
      "Ġimportant": 5089,
      "Ġmemory": 5090,
      "Ġabsolument": 5091,
      "Char": 5092,
      "Plus": 5093,
      "Ġthrown": 5094,
      "ĠpiÃ¨ce": 5095,
      "Ġcomplete": 5096,
      "known": 5097,
      "Ġconvainc": 5098,
      "Our": 5099,
      "Sans": 5100,
      "Tu": 5101,
      "Very": 5102,
      "hÃ´tel": 5103,
      "lles": 5104,
      "mn": 5105,
      "oÃ¹": 5106,
      "sh": 5107,
      "zz": 5108,
      "zen": 5109,
      "Ġ5": 5110,
      "ĠÃ®le": 5111,
      "Ġait": 5112,
      "Ġaura": 5113,
      "Ġden": 5114,
      "Ġdied": 5115,
      "Ġsigne": 5116,
      "Ġlentement": 5117,
      "enez": 5118,
      "itated": 5119,
      "Ġcul": 5120,
      "Ġmed": 5121,
      "isions": 5122,
      "Ġfid": 5123,
      "Ġhonn": 5124,
      "Ġearly": 5125,
      "Ġeussent": 5126,
      "ĠnÃ©g": 5127,
      "urÃ©": 5128,
      "Ġrepr": 5129,
      "Ġgle": 5130,
      "Ġrain": 5131,
      "chÃ©e": 5132,
      "rop": 5133,
      "Ġyell": 5134,
      "ider": 5135,
      "acy": 5136,
      "acam": 5137,
      "Ġalt": 5138,
      "Ġcho": 5139,
      "Ġchang": 5140,
      "Ġatmos": 5141,
      "Ġnoticed": 5142,
      "ĠÃ©tend": 5143,
      "Ġuneas": 5144,
      "Ġproud": 5145,
      "Ġshot": 5146,
      "ĠBour": 5147,
      "Ġkil": 5148,
      "Ġdog": 5149,
      "ĠFor": 5150,
      "airement": 5151,
      "Ġlibre": 5152,
      "ĠDE": 5153,
      "Ġoutside": 5154,
      "Ġlog": 5155,
      "Ġlover": 5156,
      "iled": 5157,
      "igned": 5158,
      "Ġcler": 5159,
      "Ġdevaient": 5160,
      "onnement": 5161,
      "Ġaccent": 5162,
      "ĠrÃ©un": 5163,
      "ogne": 5164,
      "Ġdemandait": 5165,
      "Only": 5166,
      "Ġvoyez": 5167,
      "Ġparlant": 5168,
      "ĠÃ©paul": 5169,
      "Ġpromised": 5170,
      "ĠconnaÃ®tre": 5171,
      "Ġquestions": 5172,
      "Ġentendait": 5173,
      "theless": 5174,
      "Ġopening": 5175,
      "Ġpleased": 5176,
      "Ġreading": 5177,
      "Ġgirls": 5178,
      "Ġsoldiers": 5179,
      "Ġbeauty": 5180,
      "ĠClaude": 5181,
      "Ġmauvaise": 5182,
      "Ġfifty": 5183,
      "Ġstarted": 5184,
      "Ġanxious": 5185,
      "Ġinnoc": 5186,
      "ĠsociÃ©tÃ©": 5187,
      "Ġsuspic": 5188,
      "**": 5189,
      "EN": 5190,
      "Maintenant": 5191,
      "OR": 5192,
      "ker": 5193,
      "mb": 5194,
      "more": 5195,
      "Ġciv": 5196,
      "Ġment": 5197,
      "isÃ©": 5198,
      "Ġbi": 5199,
      "lever": 5200,
      "urst": 5201,
      "Ġjum": 5202,
      "vey": 5203,
      "ading": 5204,
      "etÃ©": 5205,
      "Ġenn": 5206,
      "imagin": 5207,
      "Ã©tat": 5208,
      "ĠMou": 5209,
      "icule": 5210,
      "Ġchale": 5211,
      "Ġchaud": 5212,
      "Ġanger": 5213,
      "aule": 5214,
      "Ġmontre": 5215,
      "embr": 5216,
      "illet": 5217,
      "iving": 5218,
      "Ġpointe": 5219,
      "Ã§aient": 5220,
      "ĠGÃ©dÃ©on": 5221,
      "idered": 5222,
      "Ġimagine": 5223,
      "prom": 5224,
      "ĠintÃ©rÃªt": 5225,
      "Ġparties": 5226,
      "Ġlose": 5227,
      "angl": 5228,
      "ĠÃ©b": 5229,
      "Ã»mes": 5230,
      "Ġspend": 5231,
      "ledge": 5232,
      "While": 5233,
      "Ġworse": 5234,
      "ocked": 5235,
      "Ġsortit": 5236,
      "Ġindis": 5237,
      "Ġreturning": 5238,
      "ĠvolontÃ©": 5239,
      "oeil": 5240,
      "Ġsimplement": 5241,
      "uvre": 5242,
      "Ġsensation": 5243,
      "escalier": 5244,
      "horizon": 5245,
      "ĠXI": 5246,
      "Ġdemeure": 5247,
      "ĠcommenÃ§ait": 5248,
      "Ġimportance": 5249,
      "Ġmettait": 5250,
      "aquin": 5251,
      "gueil": 5252,
      "Ġbonnes": 5253,
      "ĠrÃ©flex": 5254,
      "Ġapartment": 5255,
      "Ġcitad": 5256,
      "Chapter": 5257,
      "ĠmÃ©decin": 5258,
      "Ġunhappy": 5259,
      "!...": 5260,
      "Are": 5261,
      "Cela": 5262,
      "Comment": 5263,
      "During": 5264,
      "ault": 5265,
      "mis": 5266,
      "oid": 5267,
      "Ġdure": 5268,
      "Ġsit": 5269,
      "Ġlarg": 5270,
      "inqu": 5271,
      "Ġpair": 5272,
      "Ġcustom": 5273,
      "ĠmÃ©l": 5274,
      "Ġwretched": 5275,
      "Ġfun": 5276,
      "Ġfal": 5277,
      "Ġbons": 5278,
      "Ġhig": 5279,
      "Ġham": 5280,
      "Ġhide": 5281,
      "leurs": 5282,
      "Ġoise": 5283,
      "Ġed": 5284,
      "asp": 5285,
      "Ġviend": 5286,
      "Ġlearned": 5287,
      "Ġrive": 5288,
      "adis": 5289,
      "iration": 5290,
      "Ġqueen": 5291,
      "Ġforth": 5292,
      "ĠforÃªt": 5293,
      "termin": 5294,
      "aume": 5295,
      "Ġmoving": 5296,
      "nebeau": 5297,
      "Ġstretched": 5298,
      "Ġexpos": 5299,
      "ooks": 5300,
      "Ġpros": 5301,
      "ueux": 5302,
      "ĠBes": 5303,
      "Ã¢te": 5304,
      "ĠEs": 5305,
      "onna": 5306,
      "Ġchee": 5307,
      "ĠgoÃ»t": 5308,
      "ĠTHE": 5309,
      "Ġcoal": 5310,
      "Ġemport": 5311,
      "Ġconsol": 5312,
      "Ġforty": 5313,
      "riez": 5314,
      "Ġgliss": 5315,
      "Ġvenue": 5316,
      "tenir": 5317,
      "Ġimpression": 5318,
      "Ġaffair": 5319,
      "Ġtroubl": 5320,
      "Ġprofesseur": 5321,
      "ĠguÃ¨re": 5322,
      "ouda": 5323,
      "Ġvoulais": 5324,
      "Ġservir": 5325,
      "Ġlivre": 5326,
      "Ġhandsome": 5327,
      "Ġhabitu": 5328,
      "Ġhonte": 5329,
      "Ġadvanced": 5330,
      "Ġsatisfied": 5331,
      "Ġsettled": 5332,
      "Ġswear": 5333,
      "Ġbattre": 5334,
      "ĠquittÃ©": 5335,
      "ĠpitiÃ©": 5336,
      "importe": 5337,
      "ĠReed": 5338,
      "ĠItal": 5339,
      "Ġdistingu": 5340,
      "Ġefforts": 5341,
      "ĠaperÃ§ut": 5342,
      "Ġsensible": 5343,
      "Ġcircumstances": 5344,
      "ĠmÃ©pris": 5345,
      "ĠdÃ©jeuner": 5346,
      "Ġformidable": 5347,
      "Ainsi": 5348,
      "OcÃ©an": 5349,
      "Rien": 5350,
      "met": 5351,
      "yez": 5352,
      "ĠZacharie": 5353,
      "Ġdam": 5354,
      "Ġdames": 5355,
      "Ġsand": 5356,
      "ĠcÃ©d": 5357,
      "Ġmorte": 5358,
      "Ġfirent": 5359,
      "Ġfield": 5360,
      "Ġbul": 5361,
      "Ġhyp": 5362,
      "urant": 5363,
      "Ġetc": 5364,
      "Ġrom": 5365,
      "Ġride": 5366,
      "irons": 5367,
      "Ġenne": 5368,
      "ĠIng": 5369,
      "ĠMort": 5370,
      "Ġalthough": 5371,
      "Ġdesert": 5372,
      "Ġchag": 5373,
      "Ġstorm": 5374,
      "Ġprudence": 5375,
      "ĠfrÃ©qu": 5376,
      "Ġexerc": 5377,
      "Ġexemple": 5378,
      "Ġallaient": 5379,
      "Ġarrive": 5380,
      "Ġmaisons": 5381,
      "Ġbranches": 5382,
      "Ġpock": 5383,
      "ĠHans": 5384,
      "istes": 5385,
      "ideon": 5386,
      "ĠRaquin": 5387,
      "Ġintro": 5388,
      "Ġlikely": 5389,
      "Ġcouleur": 5390,
      "Ġlock": 5391,
      "ĠÃ©qu": 5392,
      "resses": 5393,
      "Ġcompt": 5394,
      "Ġcomprend": 5395,
      "Ġclair": 5396,
      "Ġadress": 5397,
      "Ġresult": 5398,
      "Ġflow": 5399,
      "Ġaccompagn": 5400,
      "ĠrÃ©d": 5401,
      "Ġposte": 5402,
      "ogue": 5403,
      "ĠÃ©criv": 5404,
      "ĠÃ©crire": 5405,
      "Ġsecou": 5406,
      "ugust": 5407,
      "Ġpuisse": 5408,
      "Ġsilenc": 5409,
      "Ġministre": 5410,
      "Ġmerveille": 5411,
      "ĠrÃ©serv": 5412,
      "Ġrevoir": 5413,
      "iction": 5414,
      "Ġfinding": 5415,
      "Ġnaturelle": 5416,
      "azz": 5417,
      "Ġvitesse": 5418,
      "Ġbright": 5419,
      "Ġhonor": 5420,
      "dessous": 5421,
      "Ġanglais": 5422,
      "ĠÃ©videmment": 5423,
      "apercev": 5424,
      "Ġapproached": 5425,
      "Ġpresented": 5426,
      "Ġhurried": 5427,
      "Ġspoken": 5428,
      "Ġcompagnon": 5429,
      "Ġfurther": 5430,
      "Ġuttered": 5431,
      "ĠfenÃªtres": 5432,
      "Ġlisten": 5433,
      "III": 5434,
      "ĠcommenÃ§a": 5435,
      "Ġracont": 5436,
      "ĠreÃ§u": 5437,
      "ĠmÃªmes": 5438,
      "ĠprofondÃ©ment": 5439,
      "Ġargent": 5440,
      "Ġsommeil": 5441,
      "Ġspirit": 5442,
      "Fabrizio": 5443,
      "Ġexactly": 5444,
      "Ġshadow": 5445,
      "Ġevidently": 5446,
      "Ġbrusquement": 5447,
      "Ġlueur": 5448,
      "Besides": 5449,
      "Charles": 5450,
      "ĠÃ©paules": 5451,
      "Ayrton": 5452,
      "Cl": 5453,
      "Emma": 5454,
      "Some": 5455,
      "eu": 5456,
      "fast": 5457,
      "gate": 5458,
      "oie": 5459,
      "rÃ©t": 5460,
      "ÂĴ": 5461,
      "ĠUne": 5462,
      "ining": 5463,
      "Ġpes": 5464,
      "Ġpow": 5465,
      "Ġcop": 5466,
      "Ġmise": 5467,
      "Ġwounded": 5468,
      "Ġbelles": 5469,
      "Ġhouses": 5470,
      "arl": 5471,
      "Ġnerv": 5472,
      "Ġnorth": 5473,
      "unk": 5474,
      "Ġrushed": 5475,
      "irÃ©": 5476,
      "Ġseat": 5477,
      "imer": 5478,
      "Ġwhatever": 5479,
      "ieusement": 5480,
      "Ġforte": 5481,
      "Ġcomprom": 5482,
      "Ġparfois": 5483,
      "ĠMonseigneur": 5484,
      "Ġconne": 5485,
      "Ġplate": 5486,
      "Ġpluie": 5487,
      "Ġchanged": 5488,
      "Ãªque": 5489,
      "ĠCour": 5490,
      "ĠCont": 5491,
      "Ġsurr": 5492,
      "ĠfraÃ®": 5493,
      "key": 5494,
      "pered": 5495,
      "ĠPort": 5496,
      "Ã©cut": 5497,
      "Ġdiss": 5498,
      "Ġappris": 5499,
      "Ġmange": 5500,
      "ĠBask": 5501,
      "ĠBessie": 5502,
      "Ġdoc": 5503,
      "Ġbrut": 5504,
      "Ġabomin": 5505,
      "aution": 5506,
      "umph": 5507,
      "ĠdÃ©n": 5508,
      "Ġintention": 5509,
      "ĠEst": 5510,
      "Ã©rir": 5511,
      "Ã©ration": 5512,
      "Ġparty": 5513,
      "aked": 5514,
      "Ġcompar": 5515,
      "Ġcloud": 5516,
      "Ġcool": 5517,
      "Ġconsult": 5518,
      "reek": 5519,
      "Ġsoudain": 5520,
      "Ġvenge": 5521,
      "Ġfirm": 5522,
      "moire": 5523,
      "Ġinstants": 5524,
      "Ġindiqu": 5525,
      "Ġmisfort": 5526,
      "Ġinstead": 5527,
      "Ġconnu": 5528,
      "Ġmeters": 5529,
      "Ġexcess": 5530,
      "Ġvolont": 5531,
      "Ġdivers": 5532,
      "ĠdÃ©tails": 5533,
      "ĠMarch": 5534,
      "Ġsignal": 5535,
      "Ġmidi": 5536,
      "ĠMilan": 5537,
      "Ġverre": 5538,
      "Ġconsiderable": 5539,
      "Ġcompanion": 5540,
      "Ġwrong": 5541,
      "Ġprisoner": 5542,
      "Ġideas": 5543,
      "ouverte": 5544,
      "ĠKitty": 5545,
      "Ġcombat": 5546,
      "Ġoccupied": 5547,
      "ĠbeautÃ©": 5548,
      "Ġdevenait": 5549,
      "ĠriviÃ¨re": 5550,
      "ĠHennebeau": 5551,
      "Ġcroyait": 5552,
      "Ġsmiled": 5553,
      "ĠJeanlin": 5554,
      "Ġanxi": 5555,
      "elopp": 5556,
      "Ġsauver": 5557,
      "Ġimpatient": 5558,
      "Ġsquare": 5559,
      "Ġfingers": 5560,
      "Ġfaudrait": 5561,
      "Ġempty": 5562,
      "Ġmorceau": 5563,
      "Ġpulled": 5564,
      "Ġleagues": 5565,
      "histoire": 5566,
      "Ġelectric": 5567,
      "AN": 5568,
      "Just": 5569,
      "aÃ¯": 5570,
      "come": 5571,
      "dom": 5572,
      "erence": 5573,
      "lers": 5574,
      "wise": 5575,
      "Ġouvr": 5576,
      "Ġtit": 5577,
      "Ġdign": 5578,
      "Ġdry": 5579,
      "rees": 5580,
      "ouvert": 5581,
      "Ġpick": 5582,
      "Ġmu": 5583,
      "Ġmers": 5584,
      "ĠmÃ©n": 5585,
      "Ġwide": 5586,
      "Ġfet": 5587,
      "Ġfaint": 5588,
      "Ġbale": 5589,
      "Ġbook": 5590,
      "Ġbitter": 5591,
      "Ġhuge": 5592,
      "leep": 5593,
      "Ġorig": 5594,
      "Ġnord": 5595,
      "Ġlever": 5596,
      "Ġrate": 5597,
      "irg": 5598,
      "etr": 5599,
      "Ġyield": 5600,
      "agit": 5601,
      "Ġmeas": 5602,
      "Ġforced": 5603,
      "Ġparv": 5604,
      "Ġjealous": 5605,
      "Ġalive": 5606,
      "icated": 5607,
      "avons": 5608,
      "ift": 5609,
      "Ġsafe": 5610,
      "Ġfranch": 5611,
      "Ġexac": 5612,
      "Ġallons": 5613,
      "ĠPirard": 5614,
      "ouvrait": 5615,
      "Ġproper": 5616,
      "ueill": 5617,
      "ĠBer": 5618,
      "ĠHis": 5619,
      "intÃ©rieur": 5620,
      "onnax": 5621,
      "Ġserai": 5622,
      "Ġroy": 5623,
      "Ġpartout": 5624,
      "assa": 5625,
      "Ġdemie": 5626,
      "Ġcourir": 5627,
      "Ġterres": 5628,
      "Ġpoints": 5629,
      "ĠrÃ©veill": 5630,
      "ĠscÃ¨ne": 5631,
      "Ġspec": 5632,
      "ĠtroisiÃ¨me": 5633,
      "ĠÃ©prouv": 5634,
      "Ġincident": 5635,
      "Ġpetites": 5636,
      "inced": 5637,
      "Ġcurrent": 5638,
      "Ġfigures": 5639,
      "ĠdÃ©tour": 5640,
      "ĠAronnax": 5641,
      "Ġabsur": 5642,
      "Ġabsence": 5643,
      "ĠMarquis": 5644,
      "espÃ©r": 5645,
      "Ġtriomp": 5646,
      "Ġpropri": 5647,
      "Ġreader": 5648,
      "Ġfatigue": 5649,
      "ĠFranc": 5650,
      "oebus": 5651,
      "Ġmarchait": 5652,
      "Ġplaisant": 5653,
      "Ġsolemn": 5654,
      "Ġmademoiselle": 5655,
      "Ġheaven": 5656,
      "Ġbuild": 5657,
      "Ġconnaissance": 5658,
      "Ġpromenade": 5659,
      "Ġremembered": 5660,
      "Ġpurpose": 5661,
      "Ġfrightened": 5662,
      "ĠProfessor": 5663,
      "Ġvoudrais": 5664,
      "Ġapparent": 5665,
      "Ġshouted": 5666,
      "Fabrice": 5667,
      "Ġbirds": 5668,
      "Ġcousin": 5669,
      "curitÃ©": 5670,
      "Ġmotionless": 5671,
      "Ġcamarades": 5672,
      "Ġconscience": 5673,
      "ĠreprÃ©s": 5674,
      "angloss": 5675,
      "Pierre": 5676,
      "do": 5677,
      "dy": 5678,
      "house": 5679,
      "nÃ©s": 5680,
      "she": 5681,
      "vre": 5682,
      "xel": 5683,
      "Ġaime": 5684,
      "Ġaigu": 5685,
      "rement": 5686,
      "Ġsitting": 5687,
      "Ġlun": 5688,
      "Ġlines": 5689,
      "ising": 5690,
      "Ã©b": 5691,
      "anÃ§ait": 5692,
      "Ġfussent": 5693,
      "quette": 5694,
      "quelles": 5695,
      "aravant": 5696,
      "attered": 5697,
      "orse": 5698,
      "oration": 5699,
      "edy": 5700,
      "ĠvÃªte": 5701,
      "aide": 5702,
      "Ġretre": 5703,
      "Ġhearing": 5704,
      "utely": 5705,
      "chaient": 5706,
      "Ġneg": 5707,
      "acked": 5708,
      "ayant": 5709,
      "Ġasleep": 5710,
      "Ġchanger": 5711,
      "Ġchief": 5712,
      "--Â«": 5713,
      "ĠÃ©tabl": 5714,
      "Ġtraces": 5715,
      "Ġstir": 5716,
      "Ġsake": 5717,
      "empl": 5718,
      "Ġshare": 5719,
      "Ġshel": 5720,
      "Ġproch": 5721,
      "Ġgroup": 5722,
      "Ġpeau": 5723,
      "ongo": 5724,
      "Ġarrange": 5725,
      "ĠBe": 5726,
      "Ġkit": 5727,
      "Ġamid": 5728,
      "ĠGrim": 5729,
      "Ġprev": 5730,
      "Ġprenant": 5731,
      "ĠEurope": 5732,
      "onnait": 5733,
      "ĠDongo": 5734,
      "ĠNap": 5735,
      "Ġchest": 5736,
      "Ġadop": 5737,
      "uded": 5738,
      "Ġterror": 5739,
      "Ġappuy": 5740,
      "Ġanyone": 5741,
      "Ġencour": 5742,
      "Ġthanks": 5743,
      "Ġjournal": 5744,
      "Ġsentence": 5745,
      "ettait": 5746,
      "rÃ©m": 5747,
      "pected": 5748,
      "exist": 5749,
      "Ġtrouvai": 5750,
      "Ġspee": 5751,
      "duced": 5752,
      "Ġended": 5753,
      "Ġendroit": 5754,
      "Ġputting": 5755,
      "ĠParme": 5756,
      "ĠParma": 5757,
      "Ġlaissant": 5758,
      "Ġinsp": 5759,
      "Ġgentil": 5760,
      "heureux": 5761,
      "ĠsoirÃ©e": 5762,
      "Ġsolitude": 5763,
      "Ġconvinced": 5764,
      "Ã©rieux": 5765,
      "Ġanimals": 5766,
      "Ġpauvres": 5767,
      "Ġescaped": 5768,
      "bourn": 5769,
      "habitude": 5770,
      "Ġsangl": 5771,
      "Ġpalais": 5772,
      "Ġrepeat": 5773,
      "Ġsisters": 5774,
      "Ġapercev": 5775,
      "Pourquoi": 5776,
      "Ġgalop": 5777,
      "Ġdirige": 5778,
      "approcha": 5779,
      "Ġconduite": 5780,
      "Ġrapidly": 5781,
      "Ġgazed": 5782,
      "Ġpierres": 5783,
      "Ġburning": 5784,
      "Ġmachine": 5785,
      "Ġaffirm": 5786,
      "Ġmarquise": 5787,
      "Ġgrief": 5788,
      "Ġprolong": 5789,
      "ĠLongbourn": 5790,
      "ĠIngram": 5791,
      "ĠBaskerville": 5792,
      "Did": 5793,
      "ding": 5794,
      "fer": 5795,
      "hait": 5796,
      "lo": 5797,
      "lig": 5798,
      "liv": 5799,
      "ring": 5800,
      "ses": 5801,
      "vait": 5802,
      "ypt": 5803,
      "hered": 5804,
      "Ġda": 5805,
      "Ġdare": 5806,
      "Ġdigne": 5807,
      "Ġdrive": 5808,
      "reed": 5809,
      "Ġsought": 5810,
      "ouÃ©": 5811,
      "Ġpai": 5812,
      "Ġpurs": 5813,
      "ĠpÃ»t": 5814,
      "Ġprie": 5815,
      "Ġmend": 5816,
      "ism": 5817,
      "Ġfave": 5818,
      "Ġnation": 5819,
      "atin": 5820,
      "enture": 5821,
      "asc": 5822,
      "Ġqual": 5823,
      "nde": 5824,
      "Ġvar": 5825,
      "Ġvic": 5826,
      "Ġvide": 5827,
      "Ġlaisse": 5828,
      "Ġreve": 5829,
      "Ġheat": 5830,
      "Ġunfortun": 5831,
      "right": 5832,
      "riÃ¨res": 5833,
      "ĠMon": 5834,
      "auff": 5835,
      "Ġstat": 5836,
      "Ġstones": 5837,
      "ĠCr": 5838,
      "ĠprÃ©tend": 5839,
      "Ġsoix": 5840,
      "ĠallÃ©": 5841,
      "chen": 5842,
      "ĠPac": 5843,
      "Ġsuit": 5844,
      "ĠStre": 5845,
      "sip": 5846,
      "Ġvoit": 5847,
      "oreux": 5848,
      "Ġapres": 5849,
      "ettez": 5850,
      "Ġliqu": 5851,
      "Ġfever": 5852,
      "Ġloc": 5853,
      "ignation": 5854,
      "assin": 5855,
      "Ġremords": 5856,
      "Ġcesse": 5857,
      "Ġauthor": 5858,
      "oix": 5859,
      "cies": 5860,
      "Ġourselves": 5861,
      "Ġmesure": 5862,
      "Ġcaver": 5863,
      "Ġcaused": 5864,
      "ĠWe": 5865,
      "Ġportes": 5866,
      "Ġfamous": 5867,
      "Ġcurious": 5868,
      "Ġsooner": 5869,
      "Ġgardes": 5870,
      "Ġgenre": 5871,
      "Ġsuffer": 5872,
      "Åĵbus": 5873,
      "Ġcontrary": 5874,
      "Ġlatitude": 5875,
      "Ġstream": 5876,
      "ĠPrudence": 5877,
      "Ġjouer": 5878,
      "Ġcarefully": 5879,
      "Ġangry": 5880,
      "Ġpermission": 5881,
      "Ġfaible": 5882,
      "Ġparticular": 5883,
      "Ġbreakfast": 5884,
      "ancholy": 5885,
      "Ġbattle": 5886,
      "Ġretrouver": 5887,
      "Ġdessus": 5888,
      "Ġtraits": 5889,
      "Ġdisparu": 5890,
      "Ġbande": 5891,
      "Ġauparavant": 5892,
      "Ġmalheureuse": 5893,
      "Ġglobe": 5894,
      "Ġlangu": 5895,
      "Ġproduced": 5896,
      "Ġadmiration": 5897,
      "Ġsucceeded": 5898,
      "Ġrejo": 5899,
      "Ġpipe": 5900,
      "Ġrencontre": 5901,
      "Ġdoigts": 5902,
      "Ġdepths": 5903,
      "Ġfancy": 5904,
      "Ġsacrifice": 5905,
      "Ġmagnificent": 5906,
      "Ġsugg": 5907,
      "Ġmelancholy": 5908,
      "Ġpeuple": 5909,
      "Ġyellow": 5910,
      "Ġkitchen": 5911,
      "Ġgentilhomme": 5912,
      "Ġsoixante": 5913,
      "Go": 5914,
      "LE": 5915,
      "bas": 5916,
      "cles": 5917,
      "how": 5918,
      "pet": 5919,
      "tesse": 5920,
      "ua": 5921,
      "vel": 5922,
      "yle": 5923,
      "zy": 5924,
      "ĠWhat": 5925,
      "Ġavert": 5926,
      "Ġdared": 5927,
      "Ġdying": 5928,
      "oue": 5929,
      "Ġpor": 5930,
      "Ġpushed": 5931,
      "Ġmam": 5932,
      "eries": 5933,
      "iser": 5934,
      "ani": 5935,
      "anks": 5936,
      "anÃ§ais": 5937,
      "Ġwid": 5938,
      "Ġwret": 5939,
      "Ġbent": 5940,
      "Ġbase": 5941,
      "Ġharm": 5942,
      "orous": 5943,
      "Ġinvent": 5944,
      "Ġrough": 5945,
      "Ġroll": 5946,
      "Ġrues": 5947,
      "Ġrail": 5948,
      "Ġunknown": 5949,
      "chief": 5950,
      "Ġserez": 5951,
      "Ġlesquels": 5952,
      "Ġparle": 5953,
      "Ġparal": 5954,
      "acÃ©": 5955,
      "acques": 5956,
      "Ġasking": 5957,
      "icitÃ©": 5958,
      "ends": 5959,
      "Ġstar": 5960,
      "Ġsurp": 5961,
      "Ġsaur": 5962,
      "Ġisol": 5963,
      "Ġshr": 5964,
      "ĠPier": 5965,
      "ĠSon": 5966,
      "Ġmakes": 5967,
      "Ġorgan": 5968,
      "ĠFer": 5969,
      "ĠFar": 5970,
      "ĠGalais": 5971,
      "ĠdÃ©m": 5972,
      "Ġcoun": 5973,
      "Ġmarcher": 5974,
      "Ġfeared": 5975,
      "Ġfeatures": 5976,
      "ĠÃ©che": 5977,
      "Ġretired": 5978,
      "Ġcrut": 5979,
      "Ġcoqu": 5980,
      "ĠVoreux": 5981,
      "Ġshoulder": 5982,
      "Ġaccident": 5983,
      "Ġsentit": 5984,
      "etty": 5985,
      "rÃ©g": 5986,
      "Ġjustement": 5987,
      "Ġmalade": 5988,
      "Ġdistant": 5989,
      "Ġpuisqu": 5990,
      "Ġfera": 5991,
      "Ġmena": 5992,
      "Ġportrait": 5993,
      "Ġlives": 5994,
      "Ġtournant": 5995,
      "Ġlaissait": 5996,
      "Ġsemblaient": 5997,
      "Ã©criai": 5998,
      "Ġcondem": 5999,
      "Ġpharm": 6000,
      "Ġsuivit": 6001,
      "Ġreconnut": 6002,
      "Ġvivant": 6003,
      "ĠprÃ©cÃ©d": 6004,
      "Ġprisoners": 6005,
      "oncÃ©": 6006,
      "ĠespÃ¨ce": 6007,
      "Ġtender": 6008,
      "Ġlaughing": 6009,
      "Ġlaughed": 6010,
      "ĠrÃ©gul": 6011,
      "Ġsettlers": 6012,
      "Ġlistening": 6013,
      "ovic": 6014,
      "Ġbreaking": 6015,
      "ĠpossÃ©d": 6016,
      "Ġtombe": 6017,
      "Ġridicule": 6018,
      "Ġgallery": 6019,
      "Ġprobable": 6020,
      "Ġrecommand": 6021,
      "Ġreligion": 6022,
      "ĠcuriositÃ©": 6023,
      "instant": 6024,
      "Pencroft": 6025,
      "esterday": 6026,
      "Ġpicture": 6027,
      "ĠagrÃ©able": 6028,
      "Perhaps": 6029,
      "Have": 6030,
      "Of": 6031,
      "Pas": 6032,
      "Porthos": 6033,
      "cing": 6034,
      "case": 6035,
      "hommes": 6036,
      "nÃ©es": 6037,
      "oved": 6038,
      "well": 6039,
      "Ġtab": 6040,
      "Ġtaste": 6041,
      "Ġaunt": 6042,
      "Ġdout": 6043,
      "ĠsÃ©v": 6044,
      "eneur": 6045,
      "Ġpous": 6046,
      "Ġpant": 6047,
      "Ġcup": 6048,
      "Ġcage": 6049,
      "Ġcelles": 6050,
      "Ġdetermin": 6051,
      "Ġearn": 6052,
      "atique": 6053,
      "orme": 6054,
      "Ġtow": 6055,
      "Ġlament": 6056,
      "Ġleaves": 6057,
      "Ġja": 6058,
      "tez": 6059,
      "rimer": 6060,
      "Ġseas": 6061,
      "Ã¨me": 6062,
      "ĠMartin": 6063,
      "Ġplomb": 6064,
      "ulÃ©": 6065,
      "herlock": 6066,
      "Ġmoor": 6067,
      "Ġstair": 6068,
      "Ġstock": 6069,
      "ĠCol": 6070,
      "Ġmonst": 6071,
      "Ġallum": 6072,
      "ĠPangloss": 6073,
      "Ġproport": 6074,
      "ĠLest": 6075,
      "Ġvoile": 6076,
      "ĠAt": 6077,
      "ints": 6078,
      "Ġcoucher": 6079,
      "onnant": 6080,
      "ĠNether": 6081,
      "Ġoutre": 6082,
      "Ġrocher": 6083,
      "Ġagitation": 6084,
      "asses": 6085,
      "asseneur": 6086,
      "Ġclasse": 6087,
      "Ġtwice": 6088,
      "Ġcrav": 6089,
      "Ġremont": 6090,
      "ption": 6091,
      "Ġcapable": 6092,
      "Ġpeuvent": 6093,
      "Ġsouhait": 6094,
      "ulement": 6095,
      "renait": 6096,
      "Ġdistr": 6097,
      "Ġdistinct": 6098,
      "ĠChrist": 6099,
      "Ġassure": 6100,
      "ĠÃ©poque": 6101,
      "âĢ¦.": 6102,
      "Ġfalling": 6103,
      "Ġinsult": 6104,
      "Ġ14": 6105,
      "Ġmetres": 6106,
      "Ġforest": 6107,
      "Ġviole": 6108,
      "Ġsuffered": 6109,
      "Ġhabits": 6110,
      "ĠdÃ©ja": 6111,
      "Ġaddress": 6112,
      "Ġbrick": 6113,
      "Ġpleasant": 6114,
      "Ġfeelings": 6115,
      "ĠobligÃ©": 6116,
      "Ġdevenu": 6117,
      "Ġpareille": 6118,
      "Ġvaisseau": 6119,
      "rupt": 6120,
      "Ġraconter": 6121,
      "Ġproduit": 6122,
      "ĠrÃ©solution": 6123,
      "Ġcolonists": 6124,
      "Ġjudge": 6125,
      "Ġtorrent": 6126,
      "Ġspring": 6127,
      "Quelques": 6128,
      "Ġquietly": 6129,
      "Ġrayons": 6130,
      "Ġprotest": 6131,
      "Ġprisonniers": 6132,
      "Ġgouverne": 6133,
      "ĠCanadian": 6134,
      "ĠimmÃ©di": 6135,
      "Ġimmobile": 6136,
      "Ġgratitude": 6137,
      "Ġsorry": 6138,
      "Ġextremely": 6139,
      "Ġouverte": 6140,
      "ĠNetherfield": 6141,
      "Ad": 6142,
      "Bec": 6143,
      "Good": 6144,
      "Harris": 6145,
      "go": 6146,
      "hiver": 6147,
      "noon": 6148,
      "pon": 6149,
      "pend": 6150,
      "uments": 6151,
      "yre": 6152,
      "ĠU": 6153,
      "Ġtide": 6154,
      "Ġtante": 6155,
      "Ġtired": 6156,
      "Ġsable": 6157,
      "once": 6158,
      "issez": 6159,
      "Ã©rence": 6160,
      "Ġwore": 6161,
      "Ġfame": 6162,
      "Ġbree": 6163,
      "Ġbrow": 6164,
      "Ġharp": 6165,
      "Ġedge": 6166,
      "entrÃ©e": 6167,
      "asions": 6168,
      "Ġvirt": 6169,
      "user": 6170,
      "ailed": 6171,
      "aimer": 6172,
      "Ġgame": 6173,
      "cem": 6174,
      "veiller": 6175,
      "antÃ©": 6176,
      "antic": 6177,
      "Ġunable": 6178,
      "rique": 6179,
      "rol": 6180,
      "Ã©tr": 6181,
      "agon": 6182,
      "Ã¨tement": 6183,
      "stairs": 6184,
      "ĠMary": 6185,
      "Ġpla": 6186,
      "Ġplayed": 6187,
      "abs": 6188,
      "aband": 6189,
      "icier": 6190,
      "ules": 6191,
      "never": 6192,
      "Ġprise": 6193,
      "Ġsonger": 6194,
      "Ã©cile": 6195,
      "ouvre": 6196,
      "Ġgrad": 6197,
      "ĠLuc": 6198,
      "Ġdisg": 6199,
      "allais": 6200,
      "ĠarriÃ¨re": 6201,
      "ĠAv": 6202,
      "Ġpop": 6203,
      "Ġpoche": 6204,
      "Ġpoison": 6205,
      "ĠdÃ©r": 6206,
      "ĠRoland": 6207,
      "Ġliked": 6208,
      "ateurs": 6209,
      "Ġpassions": 6210,
      "Ġlod": 6211,
      "ĠÃ©lect": 6212,
      "igner": 6213,
      "Ġtouched": 6214,
      "Ġremark": 6215,
      "Ġcoach": 6216,
      "under": 6217,
      "raÃ®": 6218,
      "Ġrecl": 6219,
      "Quoi": 6220,
      "Ġcrimin": 6221,
      "Ġcharg": 6222,
      "ĠJehan": 6223,
      "Ã©las": 6224,
      "ĠWats": 6225,
      "Ġpension": 6226,
      "Ġfinit": 6227,
      "Ġprofession": 6228,
      "Ġtourner": 6229,
      "Ġmerc": 6230,
      "Ġconfidence": 6231,
      "Ġcertains": 6232,
      "Ġcherchait": 6233,
      "Ġmuraille": 6234,
      "Ġrelations": 6235,
      "Ġgarder": 6236,
      "Ġsource": 6237,
      "Ġsaved": 6238,
      "Ġbreast": 6239,
      "Ġriant": 6240,
      "leton": 6241,
      "Ġbaron": 6242,
      "Ġdomin": 6243,
      "Ġrude": 6244,
      "Ġadvice": 6245,
      "Ġrapide": 6246,
      "Ġrevenait": 6247,
      "ification": 6248,
      "ĠStap": 6249,
      "ĠÃ©galement": 6250,
      "Ġparticulier": 6251,
      "ĠÃ©loign": 6252,
      "Ġnoirs": 6253,
      "Ġsingular": 6254,
      "Ġsoupir": 6255,
      "entendis": 6256,
      "Ġdisposition": 6257,
      "Ġdoucement": 6258,
      "occasion": 6259,
      "ĠProv": 6260,
      "ĠentraÃ®": 6261,
      "Ġsupposed": 6262,
      "Ġsmoke": 6263,
      "Ġconceal": 6264,
      "ĠrÃ©pÃ©ta": 6265,
      "ĠCanadien": 6266,
      "Ġmeilleur": 6267,
      "Ġinterrupted": 6268,
      "Ġoreilles": 6269,
      "Ġphilosoph": 6270,
      "Phileas": 6271,
      "ĠrÃ©pliqua": 6272,
      "ĠhonnÃªte": 6273,
      "Ġchaleur": 6274,
      "Ġdocument": 6275,
      "Ġvengeance": 6276,
      "Ġanxiety": 6277,
      "Ġlanguage": 6278,
      "ĠWatson": 6279,
      "!âĢ¦": 6280,
      "AT": 6281,
      "Re": 6282,
      "car": 6283,
      "four": 6284,
      "iod": 6285,
      "oÃ»t": 6286,
      "Ġtendre": 6287,
      "Ġtels": 6288,
      "Ġtira": 6289,
      "Ġdouter": 6290,
      "renez": 6291,
      "Ġsides": 6292,
      "Ġsouth": 6293,
      "ouc": 6294,
      "Ġluck": 6295,
      "Ġpup": 6296,
      "Ġmasse": 6297,
      "Ġmaig": 6298,
      "Ġmission": 6299,
      "isme": 6300,
      "Ġfosse": 6301,
      "Ġdegr": 6302,
      "Ġevent": 6303,
      "Ġnau": 6304,
      "Ġquit": 6305,
      "omie": 6306,
      "Ġviens": 6307,
      "Ġtoit": 6308,
      "Ġlake": 6309,
      "Ġge": 6310,
      "Ġgib": 6311,
      "Ġhero": 6312,
      "Ġjadis": 6313,
      "utation": 6314,
      "Ġromp": 6315,
      "vec": 6316,
      "Ġende": 6317,
      "Ã©tabl": 6318,
      "ieuses": 6319,
      "resc": 6320,
      "rests": 6321,
      "Ġnez": 6322,
      "verina": 6323,
      "Ġcomprit": 6324,
      "abor": 6325,
      "amb": 6326,
      "tering": 6327,
      "ics": 6328,
      "Ġchim": 6329,
      "Ġchois": 6330,
      "Ġchoc": 6331,
      "avenir": 6332,
      "ureur": 6333,
      "endroit": 6334,
      "ify": 6335,
      "Ġavoid": 6336,
      "Ġprinc": 6337,
      "esses": 6338,
      "Ġshame": 6339,
      "ĠPuis": 6340,
      "redi": 6341,
      "ĠSanse": 6342,
      "oreille": 6343,
      "Ġappr": 6344,
      "ĠAu": 6345,
      "Ġdoors": 6346,
      "Ġamb": 6347,
      "Ġamen": 6348,
      "Ġamoureux": 6349,
      "ĠRassi": 6350,
      "appar": 6351,
      "Ġperiod": 6352,
      "ignit": 6353,
      "ignes": 6354,
      "Ġcompter": 6355,
      "Ġclock": 6356,
      "ancing": 6357,
      "Ġadvers": 6358,
      "ĠrÃ©pÃ©tait": 6359,
      "Ġemotion": 6360,
      "Quelle": 6361,
      "Ġconsidered": 6362,
      "Ġrepouss": 6363,
      "Ġfortnight": 6364,
      "rieres": 6365,
      "Ġsoulev": 6366,
      "ĠrÃ©pondu": 6367,
      "Ġgreater": 6368,
      "Ġsentir": 6369,
      "Ġeverywhere": 6370,
      "moins": 6371,
      "Ġboire": 6372,
      "Ġcaf": 6373,
      "riture": 6374,
      "Ġconfess": 6375,
      "Ġmonta": 6376,
      "Ġphras": 6377,
      "accord": 6378,
      "Ġrappelle": 6379,
      "Ġreceive": 6380,
      "Ã©ric": 6381,
      "Ġstreets": 6382,
      "Ġlevant": 6383,
      "Ġprovisions": 6384,
      "Ġfatigu": 6385,
      "ĠsuccÃ¨s": 6386,
      "ĠprÃ©ven": 6387,
      "ĠdÃ©liv": 6388,
      "Ġpatron": 6389,
      "Ġparticularly": 6390,
      "Ġbataille": 6391,
      "Ġcabinet": 6392,
      "Ġdescendit": 6393,
      "Ġstupid": 6394,
      "Ġspirits": 6395,
      "Ġlangue": 6396,
      "Ã©anmoins": 6397,
      "Ġgagner": 6398,
      "eneral": 6399,
      "ĠÃīminence": 6400,
      "ĠquantitÃ©": 6401,
      "Ġsym": 6402,
      "Ġextraordinary": 6403,
      "ĠlibertÃ©": 6404,
      "Ġcirconstances": 6405,
      "Ġdeclared": 6406,
      "Ġdreadful": 6407,
      "ĠmisÃ©rable": 6408,
      "Ġexecution": 6409,
      "Ġcompletely": 6410,
      "Ġwriting": 6411,
      "Ġmisfortune": 6412,
      "Ġfaveur": 6413,
      "Because": 6414,
      "Ġnaufr": 6415,
      "ĠSanseverina": 6416,
      "Don": 6417,
      "Deux": 6418,
      "ES": 6419,
      "Inde": 6420,
      "Jane": 6421,
      "Lord": 6422,
      "Voy": 6423,
      "ailler": 6424,
      "bra": 6425,
      "huit": 6426,
      "iot": 6427,
      "iest": 6428,
      "ta": 6429,
      "uary": 6430,
      "vue": 6431,
      "water": 6432,
      "Ġdent": 6433,
      "Ġsab": 6434,
      "Ġlux": 6435,
      "Ġlourd": 6436,
      "enz": 6437,
      "Ġpaint": 6438,
      "itution": 6439,
      "Ġmas": 6440,
      "ĠmÃ©ch": 6441,
      "anwhile": 6442,
      "Ġwest": 6443,
      "Ġwound": 6444,
      "Ġbill": 6445,
      "ĠbÃ©n": 6446,
      "Ġholl": 6447,
      "oritÃ©": 6448,
      "Ġvest": 6449,
      "Ġvac": 6450,
      "Ġvive": 6451,
      "Ġgun": 6452,
      "Ġgeste": 6453,
      "vere": 6454,
      "irai": 6455,
      "rog": 6456,
      "Ġbear": 6457,
      "Ġlest": 6458,
      "Ġonze": 6459,
      "resp": 6460,
      "aindre": 6461,
      "agissait": 6462,
      "Ã¨g": 6463,
      "Ġaspect": 6464,
      "ardon": 6465,
      "ardes": 6466,
      "Ġtrying": 6467,
      "Ġduel": 6468,
      "ĠComment": 6469,
      "Ġpract": 6470,
      "Ġsale": 6471,
      "Ġfrag": 6472,
      "Ġshone": 6473,
      "Ġexag": 6474,
      "Ã©parer": 6475,
      "Ġproved": 6476,
      "ĠSore": 6477,
      "ĠSignor": 6478,
      "siÃ¨re": 6479,
      "Ġpeas": 6480,
      "itecture": 6481,
      "ĠAouda": 6482,
      "Ġmanif": 6483,
      "Ġmanque": 6484,
      "issante": 6485,
      "Ġabb": 6486,
      "Ġentour": 6487,
      "ĠentiÃ¨re": 6488,
      "ĠentiÃ¨rement": 6489,
      "Ġamie": 6490,
      "bling": 6491,
      "psy": 6492,
      "Ġestabl": 6493,
      "ĠintÃ©ress": 6494,
      "ĠNo": 6495,
      "agnes": 6496,
      "Ġagreed": 6497,
      "ignÃ©": 6498,
      "Ġcompass": 6499,
      "Ġdevais": 6500,
      "Ġretirer": 6501,
      "Ġcourut": 6502,
      "ilson": 6503,
      "Ġterrif": 6504,
      "Ġflot": 6505,
      "Ġattract": 6506,
      "Ġoffici": 6507,
      "ĠobÃ©": 6508,
      "izing": 6509,
      "ĠÃ©cras": 6510,
      "Ġafternoon": 6511,
      "Ġsecours": 6512,
      "etta": 6513,
      "Ġcorde": 6514,
      "Ġcorrid": 6515,
      "Ġmalad": 6516,
      "Ġbored": 6517,
      "Ġvoyais": 6518,
      "Ġarrival": 6519,
      "Ġsilver": 6520,
      "Ġservants": 6521,
      "Ġcurtain": 6522,
      "Ġmontait": 6523,
      "Ġconditions": 6524,
      "Ġsuivi": 6525,
      "Ġtelling": 6526,
      "ĠQuand": 6527,
      "Ġnaturel": 6528,
      "Ġcontract": 6529,
      "Ġpropres": 6530,
      "Ġexplain": 6531,
      "Ġbrown": 6532,
      "ĠcomplÃ¨tement": 6533,
      "Ġquarrel": 6534,
      "ĠPhil": 6535,
      "ĠPhÅĵbus": 6536,
      "Ġsouliers": 6537,
      "Ġbuilt": 6538,
      "Ġimagined": 6539,
      "Ġcrossed": 6540,
      "Ġholding": 6541,
      "ĠdÃ©cidÃ©": 6542,
      "Ġcauser": 6543,
      "Ġabsolutely": 6544,
      "Ġdomestiques": 6545,
      "Ġfrightful": 6546,
      "cinq": 6547,
      "Ġstrike": 6548,
      "Ġtranquillement": 6549,
      "ĠVerriÃ¨res": 6550,
      "ĠVerrieres": 6551,
      "................": 6552,
      "Ġrouges": 6553,
      "Ġimpatience": 6554,
      "Ġcuriosity": 6555,
      "Ġpersuad": 6556,
      "Ġprisonnier": 6557,
      "Ġgouvern": 6558,
      "ĠsiÃ¨cle": 6559,
      "ĠRouen": 6560,
      "Toutefois": 6561,
      "Ġincreased": 6562,
      "Ġreconnaissance": 6563,
      "ĠcrÃ©ature": 6564,
      "Ġforgotten": 6565,
      "ĠBelcher": 6566,
      "Ġwitness": 6567,
      "Ġinhabit": 6568,
      "Ġgendarmes": 6569,
      "Ġriches": 6570,
      "acambo": 6571,
      "ĠMortimer": 6572,
      "Ġpocket": 6573,
      "Ġabominable": 6574,
      "Ġorigin": 6575,
      "Ġearnest": 6576,
      "Angleterre": 6577,
      "Had": 6578,
      "aver": 6579,
      "col": 6580,
      "ded": 6581,
      "fect": 6582,
      "my": 6583,
      "mÃ©": 6584,
      "obl": 6585,
      "oci": 6586,
      "pens": 6587,
      "toi": 6588,
      "vis": 6589,
      "zaine": 6590,
      "ĠÃ®": 6591,
      "Ġah": 6592,
      "Ġdull": 6593,
      "enu": 6594,
      "Ġcow": 6595,
      "Ġcity": 6596,
      "Ġcache": 6597,
      "Ġcacher": 6598,
      "Ġmart": 6599,
      "Ġmurs": 6600,
      "Ġmult": 6601,
      "Ġmienne": 6602,
      "Ġwine": 6603,
      "Ġfan": 6604,
      "Ġfill": 6605,
      "Ġboug": 6606,
      "Ġbowed": 6607,
      "ĠbontÃ©": 6608,
      "Ġoe": 6609,
      "Ġeld": 6610,
      "Ġnerve": 6611,
      "Ġvend": 6612,
      "Ġleg": 6613,
      "Ġguns": 6614,
      "Ġjure": 6615,
      "uted": 6616,
      "Ġrace": 6617,
      "ĠrÃ´le": 6618,
      "Ġseason": 6619,
      "Ġyesterday": 6620,
      "iece": 6621,
      "ieres": 6622,
      "Ġones": 6623,
      "agers": 6624,
      "verse": 6625,
      "olt": 6626,
      "Ġjeu": 6627,
      "Ġplong": 6628,
      "Ġatro": 6629,
      "Ġancient": 6630,
      "Ġtrom": 6631,
      "ĠCar": 6632,
      "Ġprudent": 6633,
      "Ġsoi": 6634,
      "ĠfranÃ§ais": 6635,
      "deur": 6636,
      "uez": 6637,
      "ueuse": 6638,
      "Ġgrace": 6639,
      "allÃ©e": 6640,
      "ĠAn": 6641,
      "ĠAs": 6642,
      "ĠAugust": 6643,
      "ĠJup": 6644,
      "Ġupper": 6645,
      "this": 6646,
      "Ġpoissons": 6647,
      "Ġordered": 6648,
      "Ġentier": 6649,
      "ĠGer": 6650,
      "ĠGideon": 6651,
      "Ã©ritÃ©": 6652,
      "Ġroches": 6653,
      "aker": 6654,
      "ignait": 6655,
      "Ġspace": 6656,
      "Ġflung": 6657,
      "Ġemer": 6658,
      "Ġconserv": 6659,
      "Ġaccus": 6660,
      "ĠrÃ©ellement": 6661,
      "Ġcries": 6662,
      "Ġscul": 6663,
      "ĠrestÃ©": 6664,
      "Ġsemaines": 6665,
      "arrÃªter": 6666,
      "Ġportion": 6667,
      "Ġhorreur": 6668,
      "Ġinterromp": 6669,
      "Ġbesogne": 6670,
      "Ġenvie": 6671,
      "ĠcÃ´tÃ©s": 6672,
      "Ġabsor": 6673,
      "Ġverd": 6674,
      "Ġseuls": 6675,
      "Ġruin": 6676,
      "Ġpayer": 6677,
      "Ġfusil": 6678,
      "Ġfailed": 6679,
      "ĠPhoebus": 6680,
      "Ġpenetr": 6681,
      "Ġwoods": 6682,
      "Ġvagues": 6683,
      "ĠcheminÃ©e": 6684,
      "Ġmusic": 6685,
      "Ġderriere": 6686,
      "Ġnavig": 6687,
      "Ġpossession": 6688,
      "Ġcatch": 6689,
      "Ġcatast": 6690,
      "Ġartic": 6691,
      "Ġlampe": 6692,
      "Ġabandoned": 6693,
      "Ġfleurs": 6694,
      "ĠmÃ©moire": 6695,
      "Ġbleu": 6696,
      "ĠlÃ©ger": 6697,
      "ĠblessÃ©": 6698,
      "Ġselon": 6699,
      "Ġhopes": 6700,
      "Ġsociety": 6701,
      "Ġignorant": 6702,
      "ĠbÃ¢timent": 6703,
      "Ġmountain": 6704,
      "Ġmiracle": 6705,
      "Ġastonishment": 6706,
      "Ġdegree": 6707,
      "Ġdegrees": 6708,
      "ĠdiffÃ©rent": 6709,
      "Ġembarrass": 6710,
      "Ġpirates": 6711,
      "Ġdeparture": 6712,
      "Meanwhile": 6713,
      "mÃªmes": 6714,
      "kerchief": 6715,
      "Ġcivil": 6716,
      "Ġfalse": 6717,
      "Ġchagrin": 6718,
      "existence": 6719,
      "Ġpharmac": 6720,
      "Ġendeav": 6721,
      "Ġphrases": 6722,
      "Cet": 6723,
      "Will": 6724,
      "bers": 6725,
      "bber": 6726,
      "cri": 6727,
      "hon": 6728,
      "ium": 6729,
      "lis": 6730,
      "loo": 6731,
      "line": 6732,
      "rance": 6733,
      "rase": 6734,
      "ĠThey": 6735,
      "ĠtÃ´t": 6736,
      "reg": 6737,
      "Ġsiff": 6738,
      "Ġsinc": 6739,
      "Ġlin": 6740,
      "ĠlÃ¢": 6741,
      "enois": 6742,
      "ĠpÃ©t": 6743,
      "Ġpoudre": 6744,
      "Ã©ro": 6745,
      "anes": 6746,
      "Ġwis": 6747,
      "Ġhumeur": 6748,
      "arriver": 6749,
      "atives": 6750,
      "eds": 6751,
      "Ġreb": 6752,
      "Ġgy": 6753,
      "Ġgri": 6754,
      "ĠgÃª": 6755,
      "Ġrum": 6756,
      "Ġunless": 6757,
      "rose": 6758,
      "rock": 6759,
      "Ġenr": 6760,
      "anding": 6761,
      "iger": 6762,
      "ĠparaÃ®tre": 6763,
      "ĠMy": 6764,
      "ĠMin": 6765,
      "Ġplans": 6766,
      "Ġdesign": 6767,
      "icable": 6768,
      "ically": 6769,
      "Ġchute": 6770,
      "ĠÃ©tais": 6771,
      "ĠÃ©touff": 6772,
      "Ġtru": 6773,
      "ĠCela": 6774,
      "Ġmyster": 6775,
      "Ġsoeur": 6776,
      "Ġisn": 6777,
      "Ġproceeded": 6778,
      "deacon": 6779,
      "Ġgrant": 6780,
      "Ġgrass": 6781,
      "ĠSherlock": 6782,
      "ĠLatin": 6783,
      "Ġvoie": 6784,
      "ĠJack": 6785,
      "Ġnose": 6786,
      "Ġpoids": 6787,
      "ĠHow": 6788,
      "Ġamus": 6789,
      "autions": 6790,
      "Ġprepar": 6791,
      "oise": 6792,
      "appoint": 6793,
      "ĠEd": 6794,
      "Ġseraient": 6795,
      "Ġpartis": 6796,
      "ension": 6797,
      "ignant": 6798,
      "Ġretard": 6799,
      "Ġretomb": 6800,
      "ĠTout": 6801,
      "ĠTabor": 6802,
      "ĠrÃ©pand": 6803,
      "Ġuseless": 6804,
      "Ġregular": 6805,
      "Ġterms": 6806,
      "nerg": 6807,
      "Ġattack": 6808,
      "Ġthank": 6809,
      "jection": 6810,
      "wned": 6811,
      "Ġhandkerchief": 6812,
      "Ġobey": 6813,
      "ainement": 6814,
      "Ġlooks": 6815,
      "izzy": 6816,
      "Ġpersons": 6817,
      "Ġcoron": 6818,
      "ipp": 6819,
      "Ġdistress": 6820,
      "exam": 6821,
      "Ġbecoming": 6822,
      "Ġtenant": 6823,
      "Ġvouloir": 6824,
      "Ġportant": 6825,
      "Ġmiserable": 6826,
      "Ġpromise": 6827,
      "Ġraisonn": 6828,
      "Ġfamili": 6829,
      "ĠcurÃ©": 6830,
      "Ġrooms": 6831,
      "Ġcentury": 6832,
      "Ġdelic": 6833,
      "Ġconduire": 6834,
      "Ġreviend": 6835,
      "ĠRob": 6836,
      "ĠMarche": 6837,
      "Ġconstr": 6838,
      "Ġexplained": 6839,
      "Ġtravaux": 6840,
      "Ġtravaill": 6841,
      "Ġadmit": 6842,
      "ĠprÃ©cisÃ©ment": 6843,
      "Ġclean": 6844,
      "Ġsouffrir": 6845,
      "Ġjoues": 6846,
      "ĠtombÃ©": 6847,
      "Ġangle": 6848,
      "Ġfusse": 6849,
      "cession": 6850,
      "Ġskin": 6851,
      "Ġhurry": 6852,
      "Ġvoisin": 6853,
      "Ġarranged": 6854,
      "Ġpatience": 6855,
      "Ġtranquill": 6856,
      "Ġ25": 6857,
      "Ġfolie": 6858,
      "Ġpoussa": 6859,
      "Ġconnaissait": 6860,
      "ĠrÃ©cit": 6861,
      "Ġcalling": 6862,
      "Ġgalerie": 6863,
      "Ġcroyais": 6864,
      "Ġrentra": 6865,
      "Ġcruel": 6866,
      "board": 6867,
      "Ġmagnifique": 6868,
      "Ġjugement": 6869,
      "Ġrecognized": 6870,
      "Ġconduct": 6871,
      "ĠrÃªve": 6872,
      "Ġfauteuil": 6873,
      "Ġhastened": 6874,
      "Ġbelonged": 6875,
      "ĠgaietÃ©": 6876,
      "idiacre": 6877,
      "obscuritÃ©": 6878,
      "ĠsÃ©jour": 6879,
      "Ġgranite": 6880,
      "ĠFriday": 6881,
      "ĠVoilÃł": 6882,
      "Ġinnocent": 6883,
      "Ġpowder": 6884,
      "irgin": 6885,
      "Ġexactement": 6886,
      "Ġabsurd": 6887,
      "ĠvÃªtements": 6888,
      "Ġspeech": 6889,
      "Ġrejoindre": 6890,
      "ĠimmÃ©diate": 6891,
      "ĠSorel": 6892,
      ".--": 6893,
      "Captain": 6894,
      "Dieu": 6895,
      "Elles": 6896,
      "Lys": 6897,
      "OU": 6898,
      "Ou": 6899,
      "Since": 6900,
      "Two": 6901,
      "Was": 6902,
      "Would": 6903,
      "bbed": 6904,
      "cro": 6905,
      "cade": 6906,
      "gar": 6907,
      "giana": 6908,
      "hand": 6909,
      "lotte": 6910,
      "midi": 6911,
      "now": 6912,
      "oit": 6913,
      "oes": 6914,
      "por": 6915,
      "voy": 6916,
      "Ã«": 6917,
      "Ġtong": 6918,
      "Ġdil": 6919,
      "Ġsaint": 6920,
      "oure": 6921,
      "enne": 6922,
      "onÃ§a": 6923,
      "Ġpounds": 6924,
      "itive": 6925,
      "Ġmouch": 6926,
      "Ã©bert": 6927,
      "Ġfail": 6928,
      "Ġbure": 6929,
      "Ġbold": 6930,
      "ĠbÃªte": 6931,
      "Ġdete": 6932,
      "Ġdeck": 6933,
      "ĠhÃ´t": 6934,
      "arge": 6935,
      "Ġvex": 6936,
      "Ġvari": 6937,
      "teenth": 6938,
      "alent": 6939,
      "Ġrig": 6940,
      "Ġrud": 6941,
      "adress": 6942,
      "Ġunw": 6943,
      "road": 6944,
      "Ġyours": 6945,
      "seigneur": 6946,
      "Ġnearer": 6947,
      "Ġmeurt": 6948,
      "Ã¨de": 6949,
      "olution": 6950,
      "ĠMaster": 6951,
      "ĠMich": 6952,
      "ĠcongÃ©": 6953,
      "Ġplun": 6954,
      "aming": 6955,
      "aps": 6956,
      "ications": 6957,
      "Ġchauss": 6958,
      "iennent": 6959,
      "uler": 6960,
      "avance": 6961,
      "----": 6962,
      "Ġweary": 6963,
      "Ġstro": 6964,
      "ĠCo": 6965,
      "ĠCrois": 6966,
      "Ġmonstr": 6967,
      "Ġmonseigneur": 6968,
      "Ġexh": 6969,
      "Ġexch": 6970,
      "Ġexha": 6971,
      "ĠPont": 6972,
      "ĠSans": 6973,
      "ĠLheureux": 6974,
      "Ġarmes": 6975,
      "Ġarmed": 6976,
      "ĠAm": 6977,
      "Ġmajest": 6978,
      "Ġmanquer": 6979,
      "ĠFroll": 6980,
      "inture": 6981,
      "Ã®te": 6982,
      "blesse": 6983,
      "Ġimpl": 6984,
      "ĠRasseneur": 6985,
      "Ġmarked": 6986,
      "Ġpassant": 6987,
      "Ġloaded": 6988,
      "ĠÃ©te": 6989,
      "assait": 6990,
      "ancÃ©e": 6991,
      "Ġdevoted": 6992,
      "Ġchef": 6993,
      "Ġretrait": 6994,
      "Ġretenir": 6995,
      "Ġcrus": 6996,
      "Ġcraindre": 6997,
      "Ġremorse": 6998,
      "Ġsport": 6999,
      "Ġcourte": 7000,
      "Ġapprendre": 7001,
      "Ġattached": 7002,
      "Ġoffice": 7003,
      "Ġreprendre": 7004,
      "retÃ©": 7005,
      "ĠOF": 7006,
      "arsh": 7007,
      "ĠdemandÃ©": 7008,
      "Ġcorre": 7009,
      "Ġcorresp": 7010,
      "ernal": 7011,
      "Ġtoutefois": 7012,
      "ĠWilson": 7013,
      "Ġparla": 7014,
      "Ġfinally": 7015,
      "ĠÃ©pÃ©e": 7016,
      "merald": 7017,
      "Ġcontinuait": 7018,
      "Ġserved": 7019,
      "Ġtourn": 7020,
      "Ġfallut": 7021,
      "Ġsmiling": 7022,
      "Ġinterior": 7023,
      "Ġkeen": 7024,
      "Ġhearts": 7025,
      "Ġmontrant": 7026,
      "Ġmontagnes": 7027,
      "Ġsubstance": 7028,
      "Ġobsc": 7029,
      "Ġobserver": 7030,
      "Ġlighted": 7031,
      "lected": 7032,
      "Ġtriumph": 7033,
      "Ġrendez": 7034,
      "Ġretourn": 7035,
      "Ġtransp": 7036,
      "Ġinvitation": 7037,
      "ĠdÃ©faut": 7038,
      "Ġnouveaux": 7039,
      "Ġlande": 7040,
      "Ġsoldier": 7041,
      "Ġpermis": 7042,
      "Ġhurt": 7043,
      "Ġremarked": 7044,
      "iletti": 7045,
      "Ġrival": 7046,
      "Ġkeeping": 7047,
      "eorgiana": 7048,
      "Ġevents": 7049,
      "Ġaimable": 7050,
      "Ġcabare": 7051,
      "Ġdestruction": 7052,
      "Ġsupporter": 7053,
      "ounce": 7054,
      "ĠÃ¢ge": 7055,
      "Ġresolution": 7056,
      "Ġmembres": 7057,
      "Ġgallop": 7058,
      "Ġmerely": 7059,
      "Ġtorture": 7060,
      "Ġignorance": 7061,
      "Ġouvriers": 7062,
      "Ġmeeting": 7063,
      "Ġprofondeur": 7064,
      "Planchet": 7065,
      "ĠoubliÃ©": 7066,
      "Ġfastened": 7067,
      "Ġtransports": 7068,
      "Ġarchdeacon": 7069,
      "Ġeleven": 7070,
      "Ġgrowing": 7071,
      "Ġastonished": 7072,
      "Pencroff": 7073,
      "Ġinformation": 7074,
      "Ġgoverness": 7075,
      "Ġbarely": 7076,
      "Ġgranit": 7077,
      "Ġenemy": 7078,
      "illiam": 7079,
      "Ġdisturbed": 7080,
      "Ġapproaching": 7081,
      "Ġcadav": 7082,
      "ĠPourquoi": 7083,
      "Ġcuisine": 7084,
      "Lorsque": 7085,
      "ĠÃ©norme": 7086,
      "Ġenthus": 7087,
      "ĠfraÃ®che": 7088,
      "Ġfetch": 7089,
      "ĠreprÃ©sent": 7090,
      "ĠGrimaud": 7091,
      "rÃ©mitÃ©": 7092,
      "Ġunfortunate": 7093,
      "Ġrecluse": 7094,
      "Ġcorridor": 7095,
      "Ġgypsy": 7096,
      "ĠCroisenois": 7097,
      "ĠFrollo": 7098,
      "meralda": 7099,
      "\"'": 7100,
      "Harbert": 7101,
      "Look": 7102,
      "Miss": 7103,
      "Mathilde": 7104,
      "Sh": 7105,
      "cun": 7106,
      "hod": 7107,
      "los": 7108,
      "lÃ©s": 7109,
      "ox": 7110,
      "pen": 7111,
      "pers": 7112,
      "rite": 7113,
      "Ġ4": 7114,
      "Ġur": 7115,
      "Ġtree": 7116,
      "Ġdamp": 7117,
      "relle": 7118,
      "reck": 7119,
      "Ġpou": 7120,
      "Ġpin": 7121,
      "Ġcout": 7122,
      "Ġming": 7123,
      "Ġmile": 7124,
      "Ġmix": 7125,
      "erte": 7126,
      "anou": 7127,
      "Ġwais": 7128,
      "Ġfold": 7129,
      "quets": 7130,
      "Ġbooks": 7131,
      "ĠhÃ¢t": 7132,
      "ĠhÃ¢te": 7133,
      "arÃ©": 7134,
      "Ġeager": 7135,
      "atri": 7136,
      "orable": 7137,
      "omte": 7138,
      "Ġvaut": 7139,
      "Ġtower": 7140,
      "elui": 7141,
      "elier": 7142,
      "Ġlap": 7143,
      "uste": 7144,
      "Ġrede": 7145,
      "Ġgarn": 7146,
      "Ġjur": 7147,
      "Ġratt": 7148,
      "veu": 7149,
      "irst": 7150,
      "aissez": 7151,
      "chÃ©s": 7152,
      "Ġnephe": 7153,
      "Ġneveu": 7154,
      "Ã¨ge": 7155,
      "Ġparois": 7156,
      "Ġdesse": 7157,
      "ulations": 7158,
      "illait": 7159,
      "ĠÃ©tud": 7160,
      "Ġmode": 7161,
      "neau": 7162,
      "Ġduke": 7163,
      "Ġwear": 7164,
      "Ġstyle": 7165,
      "avement": 7166,
      "ĠCresc": 7167,
      "Their": 7168,
      "Ġsoins": 7169,
      "Ġsoyez": 7170,
      "Ġfrais": 7171,
      "oose": 7172,
      "Ġproject": 7173,
      "ĠSan": 7174,
      "Ġdism": 7175,
      "Ġdispl": 7176,
      "Ġvoices": 7177,
      "ĠAxel": 7178,
      "ĠJacques": 7179,
      "Ġmanoe": 7180,
      "place": 7181,
      "issent": 7182,
      "uished": 7183,
      "ĠGrÃ©g": 7184,
      "ĠGeneral": 7185,
      "ĠRos": 7186,
      "ĠEminence": 7187,
      "Ġloi": 7188,
      "Ġloint": 7189,
      "Ġperce": 7190,
      "Ġclaim": 7191,
      "ancÃ©": 7192,
      "Ġwhence": 7193,
      "Ġgoes": 7194,
      "Ġblows": 7195,
      "Ã»te": 7196,
      "ĠTr": 7197,
      "Ġfaits": 7198,
      "Ġrecol": 7199,
      "nglais": 7200,
      "eping": 7201,
      "Ġaccustom": 7202,
      "Ġhaste": 7203,
      "Ġfortun": 7204,
      "Ġscar": 7205,
      "Ġscattered": 7206,
      "Ġvieill": 7207,
      "Ġvenez": 7208,
      "Ġrestr": 7209,
      "ĠchargÃ©": 7210,
      "Ġsupper": 7211,
      "Ġawait": 7212,
      "Ġtrouvaient": 7213,
      "Ġpensais": 7214,
      "ducation": 7215,
      "ĠdÃ©couvrir": 7216,
      "ĠdÃ©couverte": 7217,
      "ĠpremiÃ¨res": 7218,
      "ĠportÃ©e": 7219,
      "Ġmerci": 7220,
      "Ġoccasions": 7221,
      "Ġmisery": 7222,
      "Ġinsol": 7223,
      "inconnu": 7224,
      "Ġ15": 7225,
      "Ġdelicate": 7226,
      "Ġmontagne": 7227,
      "Ġsubs": 7228,
      "Ġveuve": 7229,
      "Ġsavage": 7230,
      "Ġtrah": 7231,
      "Ġladder": 7232,
      "Ġinstantly": 7233,
      "Ġsolid": 7234,
      "Ġjetant": 7235,
      "ĠArmand": 7236,
      "Alas": 7237,
      "espÃ¨re": 7238,
      "espoir": 7239,
      "ĠQuel": 7240,
      "Ġrendu": 7241,
      "Ġconstru": 7242,
      "Ġconstantly": 7243,
      "Ã©rique": 7244,
      "Ġredoubl": 7245,
      "Ġaddressed": 7246,
      "Ġbehav": 7247,
      "Ġlevel": 7248,
      "Ġclef": 7249,
      "Ġclearly": 7250,
      "Ġtransform": 7251,
      "Ġfeuilles": 7252,
      "issements": 7253,
      "uyait": 7254,
      "ĠtombÃ©e": 7255,
      "Ġespoir": 7256,
      "Allons": 7257,
      "Ġobservation": 7258,
      "Ġmarchand": 7259,
      "Ġlandl": 7260,
      "Ġcharmante": 7261,
      "Ġperform": 7262,
      "Ġquitta": 7263,
      "Ġdoesn": 7264,
      "Ġburied": 7265,
      "archidiacre": 7266,
      "Ġbringing": 7267,
      "Ġridicul": 7268,
      "Ġprodig": 7269,
      "officier": 7270,
      "Ġuseful": 7271,
      "ĠrÃ©solut": 7272,
      "Ġinclination": 7273,
      "empÃªcher": 7274,
      "Ġwatching": 7275,
      "Ġemployed": 7276,
      "ristan": 7277,
      "Ġcolonel": 7278,
      "Ġtrembling": 7279,
      "Ġleading": 7280,
      "Ġextreme": 7281,
      "Ġobstacle": 7282,
      "Ġtimid": 7283,
      "Ġrequired": 7284,
      "Ġbonnet": 7285,
      "Ġdelighted": 7286,
      "Ġlutte": 7287,
      "Ġreflected": 7288,
      "Ġfoolish": 7289,
      "Ġcontinue": 7290,
      "Ġcostume": 7291,
      "Ġrencontrer": 7292,
      "ĠÃ©chapper": 7293,
      "Ġdoigt": 7294,
      "ertainly": 7295,
      "Ġfaithful": 7296,
      "ĠmÃ©tier": 7297,
      "Ġseparated": 7298,
      "Ġhidden": 7299,
      "Ġenemies": 7300,
      "ĠconsÃ©quent": 7301,
      "ĠMajestÃ©": 7302,
      "xcell": 7303,
      "Ġagreeable": 7304,
      "Ġphysion": 7305,
      "Ġvapeur": 7306,
      "Ġbibl": 7307,
      "Ġoiseaux": 7308,
      "Ġnervous": 7309,
      "Ġvolontiers": 7310,
      "ĠsÃ©vÃ¨re": 7311,
      "Ġdetermined": 7312,
      "Ġstaircase": 7313,
      "ĠStapleton": 7314,
      "ĠcafÃ©": 7315,
      "enzi": 7316,
      "Ġsculpt": 7317,
      "Ġnephew": 7318,
      "ĠCrescenzi": 7319,
      "Vers": 7320,
      "ef": 7321,
      "fall": 7322,
      "five": 7323,
      "hÃ©m": 7324,
      "iÃ©e": 7325,
      "ibles": 7326,
      "ky": 7327,
      "lot": 7328,
      "lier": 7329,
      "past": 7330,
      "path": 7331,
      "rÃªme": 7332,
      "son": 7333,
      "tis": 7334,
      "uin": 7335,
      "wing": 7336,
      "Â°": 7337,
      "Ġiv": 7338,
      "hem": 7339,
      "hest": 7340,
      "rehen": 7341,
      "Ġling": 7342,
      "inrent": 7343,
      "Ġcig": 7344,
      "annÃ©e": 7345,
      "Ġful": 7346,
      "Ġfile": 7347,
      "ĠfÃ©l": 7348,
      "Ġfuir": 7349,
      "Ġbow": 7350,
      "Ġbiz": 7351,
      "Ġborn": 7352,
      "Ġbillet": 7353,
      "Ġhos": 7354,
      "Ġhier": 7355,
      "Ġhole": 7356,
      "Ġeh": 7357,
      "illy": 7358,
      "Ġvif": 7359,
      "Ġreck": 7360,
      "Ġgare": 7361,
      "Ġrass": 7362,
      "aison": 7363,
      "chai": 7364,
      "chair": 7365,
      "imm": 7366,
      "Ġyards": 7367,
      "Ġqueue": 7368,
      "resent": 7369,
      "agg": 7370,
      "olly": 7371,
      "ĠMay": 7372,
      "ĠMess": 7373,
      "acer": 7374,
      "Ġplaine": 7375,
      "ĠchaÃ®": 7376,
      "ulation": 7377,
      "illa": 7378,
      "Ãªle": 7379,
      "neaux": 7380,
      "Ġstif": 7381,
      "Ġavis": 7382,
      "ĠCes": 7383,
      "Ġceased": 7384,
      "Ġmonot": 7385,
      "Ġsoeurs": 7386,
      "ersonne": 7387,
      "Ġiss": 7388,
      "geon": 7389,
      "ouvent": 7390,
      "Ġprog": 7391,
      "Ġproceed": 7392,
      "ĠSauv": 7393,
      "ĠSainte": 7394,
      "sier": 7395,
      "Ġtouts": 7396,
      "Ġnobody": 7397,
      "Ġmanteau": 7398,
      "ĠBomb": 7399,
      "Ġdozen": 7400,
      "Ġentret": 7401,
      "ĠFleur": 7402,
      "Ġamant": 7403,
      "ĠGl": 7404,
      "ĠDans": 7405,
      "Ġseriously": 7406,
      "enses": 7407,
      "anges": 7408,
      "Ġretent": 7409,
      "Ġwilling": 7410,
      "Ġcoat": 7411,
      "Ġspark": 7412,
      "ĠVen": 7413,
      "Ġcanon": 7414,
      "Ġflo": 7415,
      "Ġflag": 7416,
      "Ġflood": 7417,
      "ĠrÃ©uss": 7418,
      "Ġoper": 7419,
      "Ġscand": 7420,
      "Ġscrup": 7421,
      "ĠÃ©couter": 7422,
      "ĠrÃ©pondait": 7423,
      "Ġknowledge": 7424,
      "Ġundert": 7425,
      "ipage": 7426,
      "attendre": 7427,
      "Ġinstance": 7428,
      "Ã©dit": 7429,
      "ĠdÃ©sert": 7430,
      "Ġincess": 7431,
      "Ġrenouv": 7432,
      "Ġrentrer": 7433,
      "Ġtourna": 7434,
      "Ġconfiance": 7435,
      "Ġrefuge": 7436,
      "Ġinsist": 7437,
      "ardiner": 7438,
      "Ġphrase": 7439,
      "Ġsourc": 7440,
      "Ġsimpl": 7441,
      "Ġdrove": 7442,
      "phy": 7443,
      "Ġjetait": 7444,
      "ĠGrand": 7445,
      "Ġreconnu": 7446,
      "aurai": 7447,
      "Ġventre": 7448,
      "Ġsouffle": 7449,
      "Ġboutique": 7450,
      "Ġsatisfait": 7451,
      "Ġkindness": 7452,
      "Ġhautes": 7453,
      "Ġtremble": 7454,
      "Ġannoy": 7455,
      "Ġdevenir": 7456,
      "Ġvault": 7457,
      "ĠremarquÃ©": 7458,
      "ĠprÃ©te": 7459,
      "Ġpensez": 7460,
      "Ġmoyens": 7461,
      "Ġmadam": 7462,
      "Ġpareil": 7463,
      "Ġdestroy": 7464,
      "Ġmistaken": 7465,
      "Ġsupply": 7466,
      "ĠXX": 7467,
      "ĠdÃ©bar": 7468,
      "Ġpowerful": 7469,
      "ĠsoupÃ§": 7470,
      "ichel": 7471,
      "Ġattendait": 7472,
      "Ġgallant": 7473,
      "Ġinclined": 7474,
      "Ġmasses": 7475,
      "Ġsongeait": 7476,
      "Ġweeks": 7477,
      "Ġstudy": 7478,
      "Ġouvrit": 7479,
      "Ġentrance": 7480,
      "ouchure": 7481,
      "Ġaccording": 7482,
      "Ġtapis": 7483,
      "Ġslightly": 7484,
      "Ġextraordinaire": 7485,
      "Ġpistoles": 7486,
      "Ġwhispered": 7487,
      "Ġconcealed": 7488,
      "Ġhesit": 7489,
      "Ġcirconstance": 7490,
      "Ġshoes": 7491,
      "Ġmousquetaires": 7492,
      "ĠdÃ©clara": 7493,
      "Ġconcerned": 7494,
      "Ġhotel": 7495,
      "Ġcraign": 7496,
      "Ġcommencement": 7497,
      "Ġstruggle": 7498,
      "ĠMusketeers": 7499,
      "ĠRodolphe": 7500,
      "Ġdiscussion": 7501,
      "Ġplatform": 7502,
      "Ġclimb": 7503,
      "Ġpossibly": 7504,
      "Ġdriven": 7505,
      "ĠhÃ©ros": 7506,
      "Ġindispens": 7507,
      "Ġflowers": 7508,
      "Ġsurrounded": 7509,
      "livier": 7510,
      "Ġgradually": 7511,
      "ĠLucas": 7512,
      "braham": 7513,
      "ĠMinister": 7514,
      "Ġcorrespond": 7515,
      "ĠBombay": 7516,
      ").": 7517,
      ".)": 7518,
      "Bien": 7519,
      "Somet": 7520,
      "Votre": 7521,
      "aques": 7522,
      "cte": 7523,
      "dans": 7524,
      "gl": 7525,
      "hold": 7526,
      "iber": 7527,
      "laient": 7528,
      "lÃ©e": 7529,
      "phere": 7530,
      "uel": 7531,
      "val": 7532,
      "xte": 7533,
      "Ãĩ": 7534,
      "Ġ7": 7535,
      "ĠThen": 7536,
      "Ġouvrir": 7537,
      "Ġtours": 7538,
      "ĠtÃªtes": 7539,
      "Ġdor": 7540,
      "Ġdust": 7541,
      "Ġdange": 7542,
      "reaux": 7543,
      "ĠsÃ©d": 7544,
      "Ġsigh": 7545,
      "ĠsÃ©rieux": 7546,
      "ouest": 7547,
      "oups": 7548,
      "Ġloun": 7549,
      "Ġlignes": 7550,
      "enue": 7551,
      "incl": 7552,
      "onie": 7553,
      "Ġpais": 7554,
      "ĠpÃ©r": 7555,
      "Ġpiqu": 7556,
      "Ġpressed": 7557,
      "Ġcy": 7558,
      "Ġcass": 7559,
      "ĠmÃ¢": 7560,
      "isely": 7561,
      "Ã©te": 7562,
      "Ġwel": 7563,
      "Ġwand": 7564,
      "ĠhÃ©r": 7565,
      "Ġhost": 7566,
      "aries": 7567,
      "arily": 7568,
      "Ġnamed": 7569,
      "Ġvas": 7570,
      "Ġvulg": 7571,
      "Ġtot": 7572,
      "Ġlabour": 7573,
      "Ġlearn": 7574,
      "Ġgue": 7575,
      "Ġgate": 7576,
      "Ġhealth": 7577,
      "iring": 7578,
      "Ġenl": 7579,
      "Ġenlev": 7580,
      "Ġwhale": 7581,
      "Ã¨che": 7582,
      "iding": 7583,
      "ests": 7584,
      "Ġdesper": 7585,
      "apt": 7586,
      "aping": 7587,
      "avag": 7588,
      "ĠÃ©troit": 7589,
      "Ġweight": 7590,
      "Ġstam": 7591,
      "Ġstayed": 7592,
      "ifier": 7593,
      "erson": 7594,
      "Ġshud": 7595,
      "Ġships": 7596,
      "Ã©cole": 7597,
      "Ġgrain": 7598,
      "alles": 7599,
      "Ġpecul": 7600,
      "Ġaveug": 7601,
      "Ġarrested": 7602,
      "Ġpoet": 7603,
      "ĠFa": 7604,
      "Ġpreuve": 7605,
      "Ġimage": 7606,
      "ĠEyre": 7607,
      "Ġ!âĢ¦": 7608,
      "opin": 7609,
      "ivered": 7610,
      "Ġblock": 7611,
      "Ġcrushed": 7612,
      "ĠTemple": 7613,
      "Ġterri": 7614,
      "Ġflott": 7615,
      "Ġflots": 7616,
      "Ġseeking": 7617,
      "Ġrepar": 7618,
      "Ġrepas": 7619,
      "Ġrepart": 7620,
      "Ġrepresent": 7621,
      "Ġcommiss": 7622,
      "Ġtempt": 7623,
      "Ġscre": 7624,
      "Ġworking": 7625,
      "Ġimper": 7626,
      "Ġtaill": 7627,
      "attes": 7628,
      "Ġbetr": 7629,
      "Ġcollection": 7630,
      "ĠÃ©pouv": 7631,
      "aissaient": 7632,
      "iÃ¨vre": 7633,
      "ĠtuÃ©": 7634,
      "Ġtourment": 7635,
      "Ġrefused": 7636,
      "Ġthrust": 7637,
      "Ġexped": 7638,
      "Ġinside": 7639,
      "Ġaccepter": 7640,
      "Ġfamil": 7641,
      "Ġcurieux": 7642,
      "Ġsourd": 7643,
      "Ġdropped": 7644,
      "Ġsaisit": 7645,
      "Ġterreur": 7646,
      "Ġsuffering": 7647,
      "Ġdiscut": 7648,
      "Ġhumaine": 7649,
      "ĠMarches": 7650,
      "Ġrendait": 7651,
      "Ġexplan": 7652,
      "Ġfault": 7653,
      "Ġpresently": 7654,
      "ĠRochefort": 7655,
      "bourg": 7656,
      "ĠprÃ©sentait": 7657,
      "Ġsoldat": 7658,
      "Ġrisk": 7659,
      "Ġfurious": 7660,
      "Ġbalust": 7661,
      "Ġamongst": 7662,
      "Ġevil": 7663,
      "Ġslept": 7664,
      "ĠgÃ©nÃ©": 7665,
      "Ġmatters": 7666,
      "Ġfolle": 7667,
      "Ġexample": 7668,
      "Ġcutting": 7669,
      "Ġsingulier": 7670,
      "Mrs": 7671,
      "Ġboys": 7672,
      "Ã¨vre": 7673,
      "ĠpÃ©nible": 7674,
      "ompagnie": 7675,
      "Ġsouthern": 7676,
      "Ġequal": 7677,
      "Ġauraient": 7678,
      "ĠtempÃ©r": 7679,
      "Ġthroat": 7680,
      "Ġcloak": 7681,
      "ĠpiÃ¨ces": 7682,
      "ĠinquiÃ©tude": 7683,
      "Ġdetails": 7684,
      "ĠprÃ©cipit": 7685,
      "ompany": 7686,
      "Ġmousquetaire": 7687,
      "ĠFrank": 7688,
      "ĠFranÃ§ais": 7689,
      "ĠarrÃªtÃ©": 7690,
      "ĠpavÃ©": 7691,
      "appelait": 7692,
      "Ġpretended": 7693,
      "Ġacquaintance": 7694,
      "ĠÃ©vÃ©nements": 7695,
      "Ġgorge": 7696,
      "Ġfrequently": 7697,
      "Ġconvaincu": 7698,
      "Ġclerk": 7699,
      "Ġapparently": 7700,
      "Ġpharmacien": 7701,
      "Ġfamiliar": 7702,
      "ĠMarchese": 7703,
      "Ġmouchoir": 7704,
      "Ġbureau": 7705,
      "ĠMichaud": 7706,
      "Ġwaist": 7707,
      "Ġphysionomie": 7708,
      "Ġlounge": 7709,
      "DÃ¨s": 7710,
      "Even": 7711,
      "George": 7712,
      "Im": 7713,
      "Mal": 7714,
      "Ned": 7715,
      "Notre": 7716,
      "Yet": 7717,
      "aquer": 7718,
      "gell": 7719,
      "iour": 7720,
      "ops": 7721,
      "pes": 7722,
      "was": 7723,
      "Ġug": 7724,
      "ĠâĢĶ": 7725,
      "Ġty": 7726,
      "ĠtÃ©n": 7727,
      "held": 7728,
      "Ġdict": 7729,
      "Ġsage": 7730,
      "ĠsantÃ©": 7731,
      "Ġlant": 7732,
      "inking": 7733,
      "Ġpente": 7734,
      "Ġpull": 7735,
      "ĠpÃªche": 7736,
      "itary": 7737,
      "Ġmol": 7738,
      "Ã©f": 7739,
      "ĠfÃªte": 7740,
      "Ġbond": 7741,
      "Ġboute": 7742,
      "Ġowe": 7743,
      "Ġep": 7744,
      "Ġecc": 7745,
      "orgueil": 7746,
      "ĠqualitÃ©": 7747,
      "eling": 7748,
      "Ġlab": 7749,
      "Ġinexp": 7750,
      "Ġlecteur": 7751,
      "ourde": 7752,
      "adventure": 7753,
      "Ġunique": 7754,
      "Ġsevent": 7755,
      "roid": 7756,
      "Ġener": 7757,
      "Ġbeach": 7758,
      "Ġwhist": 7759,
      "acte": 7760,
      "ĠannÃ©e": 7761,
      "ĠÃ©tonnÃ©": 7762,
      "endredi": 7763,
      "Ġtrust": 7764,
      "Ġunex": 7765,
      "Ġdue": 7766,
      "Ġstick": 7767,
      "ĠCompagnie": 7768,
      "Ġsaurait": 7769,
      "Ġfruit": 7770,
      "Ġshill": 7771,
      "Ġshock": 7772,
      "chet": 7773,
      "eller": 7774,
      "Ã©pÃ©e": 7775,
      "Ã©poque": 7776,
      "Ġgrains": 7777,
      "ĠSur": 7778,
      "ĠSund": 7779,
      "ĠLod": 7780,
      "ĠLÃ©on": 7781,
      "ivid": 7782,
      "Ġnoy": 7783,
      "Ġmanners": 7784,
      "ĠFe": 7785,
      "ĠFl": 7786,
      "ĠGiletti": 7787,
      "Ġimb": 7788,
      "ĠRich": 7789,
      "Ġestim": 7790,
      "Ġlibr": 7791,
      "Ġcouver": 7792,
      "Ġmarier": 7793,
      "Ġmarbre": 7794,
      "Ġmarches": 7795,
      "ĠExcell": 7796,
      "Ġfee": 7797,
      "Ġserons": 7798,
      "ittle": 7799,
      "angle": 7800,
      "ĠTristan": 7801,
      "Ġremerc": 7802,
      "Ġremoved": 7803,
      "Ġrecovered": 7804,
      "Ġcann": 7805,
      "Ġknocked": 7806,
      "Ġseek": 7807,
      "Ġenclos": 7808,
      "Ġotherwise": 7809,
      "Ġobtenir": 7810,
      "Ġcapt": 7811,
      "ogr": 7812,
      "Ġsouper": 7813,
      "Ġrested": 7814,
      "Ġcharbon": 7815,
      "Ġsentais": 7816,
      "ĠsupÃ©rieur": 7817,
      "ĠsupÃ©rieure": 7818,
      "Ġeverybody": 7819,
      "Ġcorn": 7820,
      "rences": 7821,
      "berg": 7822,
      "erness": 7823,
      "ernelle": 7824,
      "ĠboÃ®te": 7825,
      "Once": 7826,
      "Ġcaress": 7827,
      "Ġpensai": 7828,
      "Ġassured": 7829,
      "Ġbegged": 7830,
      "Ġguess": 7831,
      "Ġinconn": 7832,
      "Ġrefer": 7833,
      "Ġcherche": 7834,
      "Ceci": 7835,
      "Ġpromis": 7836,
      "Ġautrement": 7837,
      "Ġraisons": 7838,
      "ĠrÃ©serve": 7839,
      "Ġsalut": 7840,
      "Ġelb": 7841,
      "Ġmontra": 7842,
      "Ġexcited": 7843,
      "Ġsourit": 7844,
      "Ġenvirons": 7845,
      "Ġconvuls": 7846,
      "Ġfarm": 7847,
      "acca": 7848,
      "accompagn": 7849,
      "ĠdÃ©tach": 7850,
      "Ã©rid": 7851,
      "Ġredou": 7852,
      "Ġderniers": 7853,
      "ĠfaÃ§": 7854,
      "Ġbridge": 7855,
      "anchement": 7856,
      "ĠtantÃ´t": 7857,
      "Ġsouffert": 7858,
      "ĠCharlotte": 7859,
      "Ġgrosses": 7860,
      "interromp": 7861,
      "Ġpaysan": 7862,
      "Ġvoyageurs": 7863,
      "ĠÃ©glise": 7864,
      "Ġtrembled": 7865,
      "Ġdevenue": 7866,
      "Ġlaughter": 7867,
      "ĠprÃ©occup": 7868,
      "Ġvoisine": 7869,
      "Ġwooden": 7870,
      "Ġmistake": 7871,
      "Ġpromener": 7872,
      "ermain": 7873,
      "Ġgenerally": 7874,
      "Ġpressure": 7875,
      "gson": 7876,
      "ĠsinguliÃ¨re": 7877,
      "Ġclosely": 7878,
      "ĠnÃ©cessaires": 7879,
      "Ġhistory": 7880,
      "Ġmouvements": 7881,
      "Ġprobably": 7882,
      "Ġpronounced": 7883,
      "Ġplaying": 7884,
      "expression": 7885,
      "ĠdÃ©sespÃ©r": 7886,
      "Ġsauvage": 7887,
      "ĠaperÃ§u": 7888,
      "Ġcarrying": 7889,
      "Ġcontempt": 7890,
      "ĠTregell": 7891,
      "Ġsprang": 7892,
      "Voici": 7893,
      "Ġadmirable": 7894,
      "ĠLydie": 7895,
      "Ġsuperior": 7896,
      "ĠdÃ©chir": 7897,
      "Ġchemise": 7898,
      "Ġfacilement": 7899,
      "Ġmillions": 7900,
      "Ġkissed": 7901,
      "ĠrÃ©vÃ©l": 7902,
      "Ġhunger": 7903,
      "ĠsiÃ¨ge": 7904,
      "Before": 7905,
      "ĠrÃ©flÃ©chir": 7906,
      "Ġnourriture": 7907,
      "Ã©chapper": 7908,
      "ĠsÃ©rieusement": 7909,
      "ĠMajesty": 7910,
      "Ġdisturb": 7911,
      "arrivÃ©e": 7912,
      "ĠpÃ©nÃ©trer": 7913,
      "ĠMusketeer": 7914,
      "Ġexperience": 7915,
      "Ġmanquait": 7916,
      "Ġsplendid": 7917,
      "ĠAllons": 7918,
      "ĠfidÃ¨le": 7919,
      "Ġuneasy": 7920,
      "ĠForster": 7921,
      "ĠrÃ©flexions": 7922,
      "Ġcheeks": 7923,
      "Ġcomprends": 7924,
      "ĠFrancis": 7925,
      "yptienne": 7926,
      "Ġpaix": 7927,
      "Ġvarious": 7928,
      "ĠStreet": 7929,
      "ĠLestrade": 7930,
      "Ġvirtue": 7931,
      "Ġaccustomed": 7932,
      "Ġbizarre": 7933,
      "Ġpeculi": 7934,
      "ĠMarchesa": 7935,
      "ĠTregellis": 7936,
      "About": 7937,
      "Certainly": 7938,
      "Ici": 7939,
      "Mes": 7940,
      "More": 7941,
      "Meaulnes": 7942,
      "OÃ¹": 7943,
      "hire": 7944,
      "ko": 7945,
      "mort": 7946,
      "nature": 7947,
      "ncy": 7948,
      "och": 7949,
      "pres": 7950,
      "ration": 7951,
      "rante": 7952,
      "Ġ~": 7953,
      "ĠÃ§": 7954,
      "Ġtas": 7955,
      "Ġtur": 7956,
      "Ġdw": 7957,
      "Ġdanse": 7958,
      "Ġsed": 7959,
      "Ġsott": 7960,
      "Ġsank": 7961,
      "Ġsorrow": 7962,
      "onÃ§ait": 7963,
      "Ġpavement": 7964,
      "ĠcÃ©l": 7965,
      "ĠmÃ©c": 7966,
      "isait": 7967,
      "Ġfood": 7968,
      "Ġfled": 7969,
      "Ġfaux": 7970,
      "Ġfasse": 7971,
      "Ġfuite": 7972,
      "Ġbore": 7973,
      "Ġhaine": 7974,
      "armed": 7975,
      "Ġease": 7976,
      "Ġnames": 7977,
      "asmin": 7978,
      "ĠvÃªt": 7979,
      "Ġtools": 7980,
      "Ġlace": 7981,
      "Ġlack": 7982,
      "Ġlecture": 7983,
      "ĠgÃ©": 7984,
      "Ġgaze": 7985,
      "alled": 7986,
      "Ġrow": 7987,
      "oused": 7988,
      "ousias": 7989,
      "otted": 7990,
      "Ġbearing": 7991,
      "Ġwholly": 7992,
      "aints": 7993,
      "aging": 7994,
      "ague": 7995,
      "agrÃ©": 7996,
      "Ġmeur": 7997,
      "olate": 7998,
      "olled": 7999
    },
    "merges": [
      [
        "Ġ",
        "t"
      ],
      [
        "Ġ",
        "a"
      ],
      [
        "h",
        "e"
      ],
      [
        "Ġ",
        "d"
      ],
      [
        "r",
        "e"
      ],
      [
        "Ġ",
        "s"
      ],
      [
        "o",
        "u"
      ],
      [
        "Ġ",
        "l"
      ],
      [
        "e",
        "n"
      ],
      [
        "i",
        "n"
      ],
      [
        "o",
        "n"
      ],
      [
        "Ġ",
        "p"
      ],
      [
        "i",
        "t"
      ],
      [
        "Ġ",
        "c"
      ],
      [
        "e",
        "s"
      ],
      [
        "Ġ",
        "m"
      ],
      [
        "e",
        "r"
      ],
      [
        "i",
        "s"
      ],
      [
        "Ã",
        "©"
      ],
      [
        "a",
        "n"
      ],
      [
        "Ġt",
        "he"
      ],
      [
        "Ġ",
        "w"
      ],
      [
        "Ġ",
        "f"
      ],
      [
        "q",
        "u"
      ],
      [
        "Ġ",
        "b"
      ],
      [
        "Ġd",
        "e"
      ],
      [
        "Ġ",
        "h"
      ],
      [
        "a",
        "r"
      ],
      [
        "l",
        "e"
      ],
      [
        "Ġ",
        "o"
      ],
      [
        "Ġ",
        "e"
      ],
      [
        "Ġ",
        "n"
      ],
      [
        "a",
        "t"
      ],
      [
        "i",
        "l"
      ],
      [
        "en",
        "t"
      ],
      [
        "a",
        "s"
      ],
      [
        "o",
        "r"
      ],
      [
        "Ġ",
        "qu"
      ],
      [
        "e",
        "d"
      ],
      [
        "n",
        "d"
      ],
      [
        "a",
        "it"
      ],
      [
        "o",
        "m"
      ],
      [
        "Ġ",
        "v"
      ],
      [
        "Ġt",
        "o"
      ],
      [
        "in",
        "g"
      ],
      [
        "Ġo",
        "f"
      ],
      [
        "u",
        "n"
      ],
      [
        "â",
        "Ģ"
      ],
      [
        "u",
        "r"
      ],
      [
        "e",
        "l"
      ],
      [
        "Ġl",
        "a"
      ],
      [
        "Ġt",
        "h"
      ],
      [
        "Ġ",
        "in"
      ],
      [
        "Ġl",
        "e"
      ],
      [
        "u",
        "s"
      ],
      [
        "Ġa",
        "nd"
      ],
      [
        "a",
        "i"
      ],
      [
        "Ġ",
        "re"
      ],
      [
        "Ġ",
        "g"
      ],
      [
        "Ġ",
        "he"
      ],
      [
        "ou",
        "r"
      ],
      [
        "âĢ",
        "Ļ"
      ],
      [
        "Ġ",
        "j"
      ],
      [
        "t",
        "e"
      ],
      [
        "Ġe",
        "t"
      ],
      [
        "a",
        "l"
      ],
      [
        "c",
        "e"
      ],
      [
        "u",
        "t"
      ],
      [
        "Ġ",
        "r"
      ],
      [
        "v",
        "e"
      ],
      [
        "ou",
        "s"
      ],
      [
        "a",
        "d"
      ],
      [
        "i",
        "r"
      ],
      [
        "e",
        "t"
      ],
      [
        "Ã",
        "ł"
      ],
      [
        "an",
        "t"
      ],
      [
        "Ġ",
        "un"
      ],
      [
        "m",
        "e"
      ],
      [
        "a",
        "is"
      ],
      [
        "o",
        "t"
      ],
      [
        "c",
        "h"
      ],
      [
        "i",
        "on"
      ],
      [
        "r",
        "i"
      ],
      [
        "Ġs",
        "e"
      ],
      [
        "r",
        "o"
      ],
      [
        "Ġ",
        "Ãł"
      ],
      [
        "Ġ",
        "en"
      ],
      [
        "Ġ",
        "I"
      ],
      [
        "i",
        "m"
      ],
      [
        "Ġ",
        "y"
      ],
      [
        "s",
        "e"
      ],
      [
        "Ã©",
        "t"
      ],
      [
        "Ġb",
        "e"
      ],
      [
        "Ġqu",
        "e"
      ],
      [
        "Ġw",
        "h"
      ],
      [
        "Ġw",
        "as"
      ],
      [
        "ou",
        "t"
      ],
      [
        "i",
        "e"
      ],
      [
        "Ġl",
        "es"
      ],
      [
        "Ġ",
        "on"
      ],
      [
        "re",
        "s"
      ],
      [
        "an",
        "d"
      ],
      [
        "a",
        "in"
      ],
      [
        "a",
        "g"
      ],
      [
        "i",
        "g"
      ],
      [
        "Ġth",
        "at"
      ],
      [
        "Ġn",
        "e"
      ],
      [
        "Ġm",
        "e"
      ],
      [
        "Ã",
        "¨"
      ],
      [
        "i",
        "d"
      ],
      [
        "m",
        "ent"
      ],
      [
        "o",
        "w"
      ],
      [
        "v",
        "er"
      ],
      [
        "o",
        "l"
      ],
      [
        "an",
        "s"
      ],
      [
        "Ġf",
        "or"
      ],
      [
        "es",
        "t"
      ],
      [
        "s",
        "t"
      ],
      [
        "Ġc",
        "om"
      ],
      [
        "Ġp",
        "ar"
      ],
      [
        "u",
        "x"
      ],
      [
        "Ġ",
        "it"
      ],
      [
        "Ġj",
        "e"
      ],
      [
        "it",
        "h"
      ],
      [
        "Ġ",
        "M"
      ],
      [
        "Ġc",
        "on"
      ],
      [
        "a",
        "c"
      ],
      [
        "Ġp",
        "as"
      ],
      [
        "a",
        "y"
      ],
      [
        "l",
        "y"
      ],
      [
        "Ġ",
        "il"
      ],
      [
        "Ġp",
        "l"
      ],
      [
        "a",
        "b"
      ],
      [
        "Ġh",
        "is"
      ],
      [
        "Ġa",
        "l"
      ],
      [
        "Ġa",
        "s"
      ],
      [
        "Ġw",
        "ith"
      ],
      [
        "l",
        "d"
      ],
      [
        "a",
        "m"
      ],
      [
        "t",
        "er"
      ],
      [
        "Ġd",
        "es"
      ],
      [
        "a",
        "p"
      ],
      [
        "i",
        "c"
      ],
      [
        "Ġh",
        "ad"
      ],
      [
        "Ġc",
        "h"
      ],
      [
        "i",
        "en"
      ],
      [
        "Ġa",
        "t"
      ],
      [
        "u",
        "l"
      ],
      [
        "il",
        "l"
      ],
      [
        "Ġn",
        "ot"
      ],
      [
        "Ġqu",
        "i"
      ],
      [
        "a",
        "v"
      ],
      [
        "he",
        "r"
      ],
      [
        "u",
        "re"
      ],
      [
        "Ã",
        "ª"
      ],
      [
        "-",
        "-"
      ],
      [
        "o",
        "s"
      ],
      [
        "Ġy",
        "ou"
      ],
      [
        "Ġa",
        "n"
      ],
      [
        "Ġ",
        "Ã©t"
      ],
      [
        "u",
        "i"
      ],
      [
        "en",
        "d"
      ],
      [
        "ar",
        "d"
      ],
      [
        "a",
        "u"
      ],
      [
        "Ġm",
        "o"
      ],
      [
        "Ġt",
        "r"
      ],
      [
        "Ġun",
        "e"
      ],
      [
        "n",
        "e"
      ],
      [
        "Ġd",
        "u"
      ],
      [
        "ou",
        "ld"
      ],
      [
        "Ġw",
        "e"
      ],
      [
        "h",
        "t"
      ],
      [
        "Ġs",
        "t"
      ],
      [
        "Ġhe",
        "r"
      ],
      [
        "i",
        "f"
      ],
      [
        "a",
        "ve"
      ],
      [
        "Ġa",
        "v"
      ],
      [
        "Ġd",
        "ans"
      ],
      [
        "u",
        "p"
      ],
      [
        "Ġ",
        "C"
      ],
      [
        "ai",
        "ent"
      ],
      [
        "Ġp",
        "our"
      ],
      [
        "Ġp",
        "r"
      ],
      [
        "T",
        "he"
      ],
      [
        "Ġm",
        "y"
      ],
      [
        "Ġh",
        "im"
      ],
      [
        "Ġc",
        "e"
      ],
      [
        "or",
        "t"
      ],
      [
        "Ġwh",
        "i"
      ],
      [
        "Ġm",
        "on"
      ],
      [
        "Ã©",
        "e"
      ],
      [
        "Ġs",
        "o"
      ],
      [
        "Ġs",
        "ur"
      ],
      [
        "Ġs",
        "a"
      ],
      [
        "Ġs",
        "on"
      ],
      [
        "e",
        "m"
      ],
      [
        "t",
        "re"
      ],
      [
        "er",
        "s"
      ],
      [
        "es",
        "s"
      ],
      [
        "i",
        "re"
      ],
      [
        "Ġ",
        "is"
      ],
      [
        "c",
        "t"
      ],
      [
        "Ġf",
        "r"
      ],
      [
        "Ã©",
        "s"
      ],
      [
        "Ġs",
        "h"
      ],
      [
        "Ġv",
        "ous"
      ],
      [
        "Ġwhi",
        "ch"
      ],
      [
        "k",
        "e"
      ],
      [
        "Ġe",
        "x"
      ],
      [
        "el",
        "le"
      ],
      [
        "Ġa",
        "u"
      ],
      [
        "Ġal",
        "l"
      ],
      [
        "qu",
        "e"
      ],
      [
        "c",
        "he"
      ],
      [
        "at",
        "ion"
      ],
      [
        "l",
        "le"
      ],
      [
        "p",
        "e"
      ],
      [
        "Ġ",
        "P"
      ],
      [
        "Ġl",
        "ui"
      ],
      [
        "n",
        "t"
      ],
      [
        "Ġs",
        "u"
      ],
      [
        "el",
        "l"
      ],
      [
        "g",
        "e"
      ],
      [
        ".",
        "\""
      ],
      [
        "f",
        "f"
      ],
      [
        "Ã©",
        "c"
      ],
      [
        "Ġpl",
        "us"
      ],
      [
        "o",
        "o"
      ],
      [
        "Ġs",
        "he"
      ],
      [
        "Ã¨",
        "re"
      ],
      [
        "Ã©",
        "p"
      ],
      [
        "il",
        "le"
      ],
      [
        "ou",
        "v"
      ],
      [
        "re",
        "d"
      ],
      [
        "Ġh",
        "ave"
      ],
      [
        "Ġp",
        "ro"
      ],
      [
        "d",
        "e"
      ],
      [
        "u",
        "e"
      ],
      [
        "Ġg",
        "r"
      ],
      [
        "Ġ",
        "S"
      ],
      [
        "Ġb",
        "y"
      ],
      [
        "Ġ",
        "L"
      ],
      [
        "Ġd",
        "on"
      ],
      [
        "ag",
        "e"
      ],
      [
        "Ġd",
        "is"
      ],
      [
        "ig",
        "ht"
      ],
      [
        "al",
        "l"
      ],
      [
        "Ġth",
        "is"
      ],
      [
        "s",
        "i"
      ],
      [
        "Ġv",
        "o"
      ],
      [
        "o",
        "re"
      ],
      [
        "ou",
        "g"
      ],
      [
        "Ġp",
        "e"
      ],
      [
        "it",
        "e"
      ],
      [
        "on",
        "s"
      ],
      [
        "Ġa",
        "ve"
      ],
      [
        "on",
        "g"
      ],
      [
        "ai",
        "d"
      ],
      [
        "Ġa",
        "r"
      ],
      [
        "Ġa",
        "p"
      ],
      [
        "in",
        "e"
      ],
      [
        "Ġ",
        "A"
      ],
      [
        "Ġ",
        "J"
      ],
      [
        "b",
        "le"
      ],
      [
        "et",
        "te"
      ],
      [
        "ab",
        "le"
      ],
      [
        "i",
        "er"
      ],
      [
        "Ġt",
        "out"
      ],
      [
        "Ġm",
        "a"
      ],
      [
        "Ġb",
        "ut"
      ],
      [
        "ĠÃ©t",
        "ait"
      ],
      [
        "i",
        "v"
      ],
      [
        "Ġn",
        "o"
      ],
      [
        "Ġs",
        "i"
      ],
      [
        "un",
        "e"
      ],
      [
        "Ġn",
        "ous"
      ],
      [
        "Ġm",
        "an"
      ],
      [
        "Ġ",
        "B"
      ],
      [
        "Ġ",
        "up"
      ],
      [
        "Ġav",
        "ait"
      ],
      [
        "Ġm",
        "ais"
      ],
      [
        "on",
        "d"
      ],
      [
        "p",
        "l"
      ],
      [
        "Ġfr",
        "om"
      ],
      [
        "t",
        "h"
      ],
      [
        "Ġwh",
        "o"
      ],
      [
        "Ġwe",
        "re"
      ],
      [
        "Ġ",
        "k"
      ],
      [
        "Ġave",
        "c"
      ],
      [
        "Ġs",
        "aid"
      ],
      [
        "Ġd",
        "o"
      ],
      [
        "Ġd",
        "it"
      ],
      [
        "Ġb",
        "r"
      ],
      [
        "is",
        "s"
      ],
      [
        "Ġe",
        "lle"
      ],
      [
        "Ġw",
        "he"
      ],
      [
        "Ġa",
        "b"
      ],
      [
        "us",
        "t"
      ],
      [
        "'",
        "s"
      ],
      [
        "Ġ",
        "\""
      ],
      [
        "Ġp",
        "o"
      ],
      [
        "as",
        "t"
      ],
      [
        "Ġo",
        "r"
      ],
      [
        "or",
        "d"
      ],
      [
        "Ġ",
        "ent"
      ],
      [
        "Ġ",
        "F"
      ],
      [
        "I",
        "l"
      ],
      [
        "Ġ",
        "H"
      ],
      [
        "a",
        "me"
      ],
      [
        "s",
        "el"
      ],
      [
        "Ġa",
        "m"
      ],
      [
        "Ġthe",
        "y"
      ],
      [
        "a",
        "ut"
      ],
      [
        "in",
        "t"
      ],
      [
        "ai",
        "re"
      ],
      [
        ",",
        "\""
      ],
      [
        "an",
        "ce"
      ],
      [
        "a",
        "ce"
      ],
      [
        "ar",
        "t"
      ],
      [
        "in",
        "d"
      ],
      [
        "u",
        "m"
      ],
      [
        "Ġc",
        "ette"
      ],
      [
        "er",
        "t"
      ],
      [
        "en",
        "ce"
      ],
      [
        "Ġw",
        "ould"
      ],
      [
        "Ġb",
        "ien"
      ],
      [
        "Â",
        "«"
      ],
      [
        "Ã",
        "®"
      ],
      [
        "b",
        "l"
      ],
      [
        "u",
        "is"
      ],
      [
        "Ã",
        "¢"
      ],
      [
        "ur",
        "s"
      ],
      [
        "Ã",
        "§"
      ],
      [
        "is",
        "t"
      ],
      [
        "Ã¨",
        "s"
      ],
      [
        "Ġ",
        "G"
      ],
      [
        "id",
        "e"
      ],
      [
        "c",
        "c"
      ],
      [
        "Ġp",
        "re"
      ],
      [
        "Ġcom",
        "me"
      ],
      [
        "Ġ",
        "im"
      ],
      [
        "Ġon",
        "e"
      ],
      [
        "ion",
        "s"
      ],
      [
        "us",
        "e"
      ],
      [
        "Ġd",
        "Ã©"
      ],
      [
        "Ġs",
        "es"
      ],
      [
        "p",
        "r"
      ],
      [
        "Ġ",
        "R"
      ],
      [
        "Ġs",
        "om"
      ],
      [
        "Â",
        "»"
      ],
      [
        "p",
        "s"
      ],
      [
        "o",
        "is"
      ],
      [
        "v",
        "en"
      ],
      [
        "ou",
        "nd"
      ],
      [
        "Ġ",
        "est"
      ],
      [
        "Ġthe",
        "m"
      ],
      [
        "or",
        "s"
      ],
      [
        "Ġin",
        "t"
      ],
      [
        "o",
        "ir"
      ],
      [
        "Ġl",
        "i"
      ],
      [
        "m",
        "es"
      ],
      [
        "sel",
        "f"
      ],
      [
        "at",
        "e"
      ],
      [
        "ap",
        "p"
      ],
      [
        "Ġc",
        "ou"
      ],
      [
        "Ġm",
        "ar"
      ],
      [
        "c",
        "k"
      ],
      [
        "Ġ",
        "E"
      ],
      [
        "on",
        "n"
      ],
      [
        "Ã©",
        "r"
      ],
      [
        "Ġpas",
        "s"
      ],
      [
        "Ġf",
        "e"
      ],
      [
        "Ġ",
        "D"
      ],
      [
        "Ġ",
        "N"
      ],
      [
        "Ġs",
        "er"
      ],
      [
        "Ġ",
        "out"
      ],
      [
        "it",
        "t"
      ],
      [
        ".",
        "."
      ],
      [
        "Ġ",
        "!"
      ],
      [
        "Ġr",
        "o"
      ],
      [
        "ag",
        "n"
      ],
      [
        "Ġpar",
        "t"
      ],
      [
        "Ã©t",
        "ait"
      ],
      [
        "o",
        "p"
      ],
      [
        "Ġ",
        ";"
      ],
      [
        "l",
        "es"
      ],
      [
        "Ġa",
        "g"
      ],
      [
        "Ġl",
        "o"
      ],
      [
        "i",
        "ve"
      ],
      [
        "oo",
        "d"
      ],
      [
        "en",
        "s"
      ],
      [
        "an",
        "g"
      ],
      [
        "our",
        "s"
      ],
      [
        "on",
        "t"
      ],
      [
        "Ġl",
        "ong"
      ],
      [
        "i",
        "le"
      ],
      [
        "Ġ",
        "Ã©"
      ],
      [
        "Ã",
        "´"
      ],
      [
        "res",
        "s"
      ],
      [
        "?",
        "\""
      ],
      [
        "a",
        "k"
      ],
      [
        "a",
        "re"
      ],
      [
        "Ġp",
        "er"
      ],
      [
        "Ġc",
        "ould"
      ],
      [
        "ig",
        "n"
      ],
      [
        "Ġ",
        "ou"
      ],
      [
        "âĢ",
        "ĵ"
      ],
      [
        "H",
        "e"
      ],
      [
        "Ġthe",
        "re"
      ],
      [
        "i",
        "ed"
      ],
      [
        "ad",
        "e"
      ],
      [
        "i",
        "ce"
      ],
      [
        "Ġcom",
        "p"
      ],
      [
        "Ġc",
        "ar"
      ],
      [
        "Ġbe",
        "en"
      ],
      [
        "Ġthe",
        "ir"
      ],
      [
        "as",
        "s"
      ],
      [
        "Ġc",
        "l"
      ],
      [
        "an",
        "c"
      ],
      [
        "er",
        "y"
      ],
      [
        "Ġt",
        "ou"
      ],
      [
        "Ġqu",
        "el"
      ],
      [
        "Ġcon",
        "t"
      ],
      [
        "Ġde",
        "v"
      ],
      [
        "Ġc",
        "he"
      ],
      [
        "Ġwhe",
        "n"
      ],
      [
        "ai",
        "r"
      ],
      [
        "Ġre",
        "t"
      ],
      [
        "Ġw",
        "ill"
      ],
      [
        "Ġg",
        "o"
      ],
      [
        "Ġb",
        "l"
      ],
      [
        "Ġt",
        "w"
      ],
      [
        "o",
        "se"
      ],
      [
        "!",
        "\""
      ],
      [
        "Ã",
        "»"
      ],
      [
        "Ġa",
        "re"
      ],
      [
        "Ġc",
        "r"
      ],
      [
        "Ġ",
        "T"
      ],
      [
        "Ãª",
        "tre"
      ],
      [
        "Ġa",
        "d"
      ],
      [
        "in",
        "s"
      ],
      [
        "Ġre",
        "m"
      ],
      [
        "I",
        "t"
      ],
      [
        "J",
        "e"
      ],
      [
        "Ġre",
        "s"
      ],
      [
        "Ġr",
        "Ã©p"
      ],
      [
        "re",
        "at"
      ],
      [
        "p",
        "t"
      ],
      [
        "it",
        "Ã©"
      ],
      [
        "Ġgr",
        "and"
      ],
      [
        "Ġ",
        "if"
      ],
      [
        "Ġde",
        "ux"
      ],
      [
        "Ġc",
        "o"
      ],
      [
        "k",
        "ed"
      ],
      [
        "oug",
        "ht"
      ],
      [
        "oug",
        "h"
      ],
      [
        "u",
        "nd"
      ],
      [
        "Ġ",
        "us"
      ],
      [
        "is",
        "e"
      ],
      [
        "h",
        "ing"
      ],
      [
        "Ġre",
        "g"
      ],
      [
        "Ġy",
        "our"
      ],
      [
        "Ġmo",
        "re"
      ],
      [
        "Ġc",
        "es"
      ],
      [
        "Ġa",
        "ut"
      ],
      [
        "u",
        "it"
      ],
      [
        "Ġwh",
        "at"
      ],
      [
        "Ãª",
        "me"
      ],
      [
        "o",
        "i"
      ],
      [
        "ay",
        "s"
      ],
      [
        "Ã©",
        "es"
      ],
      [
        "Ġf",
        "ait"
      ],
      [
        "c",
        "i"
      ],
      [
        "Ġmo",
        "i"
      ],
      [
        "t",
        "her"
      ],
      [
        "Ġs",
        "ans"
      ],
      [
        "i",
        "me"
      ],
      [
        "Ġs",
        "p"
      ],
      [
        "Ġ",
        "V"
      ],
      [
        "Ġh",
        "om"
      ],
      [
        "L",
        "e"
      ],
      [
        "om",
        "ent"
      ],
      [
        "Ġd",
        "ou"
      ],
      [
        "o",
        "y"
      ],
      [
        "r",
        "a"
      ],
      [
        "he",
        "d"
      ],
      [
        "Ġm",
        "oment"
      ],
      [
        "Ġde",
        "m"
      ],
      [
        "ac",
        "k"
      ],
      [
        "p",
        "os"
      ],
      [
        "Ġre",
        "c"
      ],
      [
        "Ã´",
        "t"
      ],
      [
        "Ġm",
        "ain"
      ],
      [
        "Ġc",
        "our"
      ],
      [
        "ur",
        "n"
      ],
      [
        "i",
        "x"
      ],
      [
        "Ġv",
        "ery"
      ],
      [
        "Ġe",
        "ver"
      ],
      [
        "Ġc",
        "an"
      ],
      [
        "a",
        "le"
      ],
      [
        "il",
        "s"
      ],
      [
        "on",
        "e"
      ],
      [
        "ie",
        "ur"
      ],
      [
        "o",
        "d"
      ],
      [
        "Ġthe",
        "n"
      ],
      [
        "i",
        "es"
      ],
      [
        "Ġint",
        "o"
      ],
      [
        "u",
        "d"
      ],
      [
        "Ġt",
        "er"
      ],
      [
        "Ġa",
        "f"
      ],
      [
        "Ġap",
        "p"
      ],
      [
        "Ġsom",
        "e"
      ],
      [
        "a",
        "ch"
      ],
      [
        "r",
        "t"
      ],
      [
        "Ġk",
        "n"
      ],
      [
        "n",
        "er"
      ],
      [
        "ou",
        "l"
      ],
      [
        "it",
        "y"
      ],
      [
        "b",
        "re"
      ],
      [
        "Ã",
        "¹"
      ],
      [
        "Ġf",
        "l"
      ],
      [
        "u",
        "res"
      ],
      [
        "Ġan",
        "y"
      ],
      [
        "an",
        "te"
      ],
      [
        "Ġat",
        "t"
      ],
      [
        "Ġse",
        "e"
      ],
      [
        "qu",
        "es"
      ],
      [
        "n",
        "g"
      ],
      [
        "ow",
        "n"
      ],
      [
        "Ġf",
        "ut"
      ],
      [
        "end",
        "ant"
      ],
      [
        "on",
        "ne"
      ],
      [
        "Ġt",
        "ro"
      ],
      [
        "T",
        "h"
      ],
      [
        "le",
        "d"
      ],
      [
        "Ġpo",
        "int"
      ],
      [
        "f",
        "t"
      ],
      [
        "Ġl",
        "itt"
      ],
      [
        "e",
        "p"
      ],
      [
        "a",
        "ux"
      ],
      [
        "Ġen",
        "c"
      ],
      [
        "Ġli",
        "ke"
      ],
      [
        "Ġ",
        "?"
      ],
      [
        "Ġf",
        "aire"
      ],
      [
        "Ġof",
        "f"
      ],
      [
        "e",
        "ux"
      ],
      [
        "B",
        "ut"
      ],
      [
        "Ġag",
        "ain"
      ],
      [
        "che",
        "s"
      ],
      [
        "f",
        "ore"
      ],
      [
        "W",
        "h"
      ],
      [
        "r",
        "y"
      ],
      [
        "Ġe",
        "m"
      ],
      [
        "Ġth",
        "an"
      ],
      [
        "Ġle",
        "t"
      ],
      [
        "ri",
        "v"
      ],
      [
        "Ġlitt",
        "le"
      ],
      [
        "Ġc",
        "ro"
      ],
      [
        "Ġo",
        "ther"
      ],
      [
        "j",
        "e"
      ],
      [
        "Q",
        "u"
      ],
      [
        "ver",
        "s"
      ],
      [
        "Ġcon",
        "s"
      ],
      [
        "Ãª",
        "t"
      ],
      [
        "w",
        "n"
      ],
      [
        "Ġtw",
        "o"
      ],
      [
        "Ġsh",
        "ould"
      ],
      [
        "Ġa",
        "cc"
      ],
      [
        "Ġd",
        "id"
      ],
      [
        "Ġh",
        "and"
      ],
      [
        "Ġo",
        "b"
      ],
      [
        "Ġr",
        "Ã©"
      ],
      [
        "Ġp",
        "os"
      ],
      [
        "Ġto",
        "o"
      ],
      [
        "Ġt",
        "ime"
      ],
      [
        "Ġo",
        "Ã¹"
      ],
      [
        "Ġh",
        "as"
      ],
      [
        "Ġre",
        "p"
      ],
      [
        "ain",
        "e"
      ],
      [
        "k",
        "ing"
      ],
      [
        "Ġcom",
        "m"
      ],
      [
        "Ġc",
        "ri"
      ],
      [
        "i",
        "Ã¨re"
      ],
      [
        "Ġo",
        "p"
      ],
      [
        "Ġ",
        "Â»"
      ],
      [
        "Ġn",
        "ow"
      ],
      [
        "Ġup",
        "on"
      ],
      [
        "ol",
        "d"
      ],
      [
        "Ġfor",
        "t"
      ],
      [
        "en",
        "c"
      ],
      [
        "Ġa",
        "ux"
      ],
      [
        "A",
        "rt"
      ],
      [
        "ie",
        "u"
      ],
      [
        "Ġt",
        "em"
      ],
      [
        "Ġl",
        "oo"
      ],
      [
        "Ġo",
        "ver"
      ],
      [
        "el",
        "y"
      ],
      [
        "agn",
        "an"
      ],
      [
        "Ã»",
        "t"
      ],
      [
        "Art",
        "agnan"
      ],
      [
        "or",
        "te"
      ],
      [
        "Ġab",
        "out"
      ],
      [
        "Ġ",
        "our"
      ],
      [
        "is",
        "h"
      ],
      [
        "Ġreg",
        "ard"
      ],
      [
        "ac",
        "t"
      ],
      [
        "re",
        "e"
      ],
      [
        "at",
        "ed"
      ],
      [
        "A",
        "nd"
      ],
      [
        "Ġle",
        "ur"
      ],
      [
        "Ġd",
        "ire"
      ],
      [
        "Ġs",
        "c"
      ],
      [
        "Ġv",
        "ie"
      ],
      [
        "Ġc",
        "ap"
      ],
      [
        "o",
        "g"
      ],
      [
        "Ġon",
        "ly"
      ],
      [
        "i",
        "z"
      ],
      [
        "Ġpe",
        "u"
      ],
      [
        "Ġ",
        ":"
      ],
      [
        "Ġm",
        "ade"
      ],
      [
        "c",
        "l"
      ],
      [
        "Ġp",
        "et"
      ],
      [
        "M",
        "ais"
      ],
      [
        "ri",
        "e"
      ],
      [
        "ul",
        "ien"
      ],
      [
        "Ã©",
        "n"
      ],
      [
        "Ġj",
        "our"
      ],
      [
        "if",
        "f"
      ],
      [
        "Ġg",
        "l"
      ],
      [
        "ot",
        "re"
      ],
      [
        "Ġp",
        "ouv"
      ],
      [
        "re",
        "t"
      ],
      [
        "Ġ",
        "Ã©c"
      ],
      [
        "Ġs",
        "ou"
      ],
      [
        "Ġv",
        "en"
      ],
      [
        "Ġenc",
        "ore"
      ],
      [
        "ĠrÃ©p",
        "ond"
      ],
      [
        "Ġg",
        "reat"
      ],
      [
        "Ġaf",
        "ter"
      ],
      [
        "Ġre",
        "st"
      ],
      [
        "w",
        "e"
      ],
[...]
